<pad>
<eos>
<unk>
,
.
&apos;
ve
&quot;
bir
da
bu
de
için
/
nin
ın
AB
nın
a
ile
in
)
(
@-@
Sırbistan
günü
Kosova
olarak
olan
en
daha
-
dedi
:
Avrupa
söyledi
yeni
Türkiye
daki
göre
olduğunu
Sırp
&#93;
&#91;
çok
iki
e
yer
dan
arasında
tarafından
i
son
Makedonya
büyük
yıl
BH
S@@
devam
etti
ya
ilgili
kadar
Hırvatistan
ancak
diğer
ye
Belgrad
siyasi
Times
den
yaptığı
ler
konusunda
Arnavutluk
uluslararası
üzere
un
al@@
ta
Bakanı
ülkenin
her
lar
k@@
ABD
SETimes
olduğu
European
Southeast
Karadağ
leri
Bulgaristan
milyon
önemli
--
ları
sonra
karşı
eski
Yunanistan
B@@
ilk
Romanya
gibi
NATO
BM
s@@
10
ı
M@@
K@@
T@@
fazla
an
an@@
%
p@@
haberi
iyi
g@@
te
o
ise
c@@
yüzde
A@@
yılında
verdiği
Cumhurbaşkanı
11
inin
y@@
t@@
kabul
ülke
d@@
C@@
n@@
şekilde
P@@
li
olmak
Bosna
birlikte
h@@
u
önce
H@@
D@@
Türk
;
at@@
nun
ar@@
o@@
ekonomik
üç
ini
l@@
r@@
z@@
sahip
ne
içinde
m@@
v@@
deki
lerin
sonrasında
E@@
yaklaşık
R@@
ay
ç@@
ının
in@@
ediyor
en@@
devlet
12
Pazartesi
f@@
ını
veya
yapılan
üzerinde
başkanı
bin
şöyle
re@@
Hersek
savaş
oldu
ti@@
gelen
ların
Başbakan
on
L@@
j@@
değil
Hırvat
açıklamada
il@@
ol@@
ayında
ına
söz
G@@
er@@
ş@@
geçen
s
e@@
la@@
le
genel
Kıbrıs
hükümet
lerini
bütün
iç
eden
fakat
ma
Dışişleri
bunun
Çarşamba
O@@
t
N@@
ayrıca
hafta
i@@
belirtti
ine
le@@
te@@
yüksek
işbirliği
yol
var
Başbakanı
09
F@@
la
aynı
larının
yerel
üyelik
düzenlenen
geri
Getty
ten
Salı
05
geldi
Images
polis
yönelik
07
larını
avro
06
lerinin
yerine
alıyor
V@@
sıra
Priştine
demeçte
04
bazı
03
08
Reuters
ak@@
lara
on@@
özel
hakkında
as@@
1
AFP
konusu
iş
yönünde
verdi
yanı
biri
li@@
20
mak
arasındaki
pek
karar
yap@@
alan
gerektiğini
yana
larına
lere
lik
me
ver@@
I@@
b@@
konuşan
Arnavut
tek
yeniden
yardım
Mart
ana
di
me@@
?
olacak
ortak
Mayıs
uzun
2
Ekim
Haziran
Perşembe
çeşitli
sadece
Aralık
is@@
Başkanı
lerine
un@@
inde
or@@
15
aldı
güvenlik
Ocak
diyen
et@@
tüm
di@@
amaçlı
u@@
Makedon
mesi
hükümetin
yi
mek
hükümeti
ac@@
ması
bulundu
anlaşma
ul@@
ki
dört
ay@@
ileri
im@@
gün
yetkililer
şu
30
oviç
a@@
destek
kal@@
Temmuz
er
el@@
maya
Kasım
hem
karşın
Pazar
enerji
ında
ek@@
etnik
Üsküp
Nisan
açısından
Yunan
az
m
Balkan
bulunuyor
ri@@
geçtiğimiz
AP
it@@
lı
meye
yı
araya
anda
am@@
Saraybosna
mesine
tan
ası
3
Z@@
Dünya
İ@@
ad@@
dahil
Balkanlar
J@@
Bulgar
Eylül
aldığı
rağmen
de@@
Y@@
mevcut
mücadele
tam
ziyaret
25
Şubat
Kosovalı
üyesi
ü@@
k
mesini
ortaya
kendi
bekleniyor
os@@
resmi
y
ur@@
olması
acak
gerekiyor
etmek
Bu
Atina
es@@
ü
lerinden
at
sırasında
larından
Konseyi
U@@
ik@@
ından
başka
kamu
l
ikinci
yapılacak
Komisyonu
zaman
AK
yalnızca
ev
Tadiç
diyerek
milyar
mayı
Partisi
üye
askeri
ayı
ma@@
Uluslararası
17
el
miş
Rusya
masını
ıyor
para
ro@@
kişi
ekledi
yıllık
şey
inden
ın@@
5
söylüyor
avroluk
altında
göster@@
6
ıyla
4
Cuma
nedeniyle
görev
masına
yatırım
16
ulusal
seçim
bulunan
teki
lardan
yakın
al
arak
edilen
sayıda
si@@
Ağustos
Cumhuriyeti
em@@
7
katılım
insan
02
beş
ıl@@
amacıyla
ar
d
Bosnalı
bil@@
basın
ra@@
bunu
13
Brüksel
üst
ilişkin
larla
ğ@@
-@@
ciddi
hiçbir
kullan@@
altı
dile
esi
lerden
iş@@
ev@@
01
kaynaklar
18
8
unun
unu
ir@@
oy
gereken
kapsamında
eğitim
meyi
ün
av@@
14
yönündeki
ardından
aç@@
ilerleme
sona
dış
başladı
diyor
W@@
SC
inşa
var@@
w@@
27
kısa
una
kültür
larda
ek
Tiran
lerinde
edil@@
mış
derece
Lahey
meydana
bölgesel
durumda
sınır
şeklinde
geç@@
ı@@
elde
larında
st@@
mali
iy@@
2004
21
ot@@
parti
bile
adlı
güçlü
aş@@
us@@
Bankası
önümüzdeki
açık
çıkar@@
ele
Ankara
suç
IMF
sözlerine
isi
dı
günkü
İstanbul
ne@@
taki
diği
lerde
gelecek
um@@
iz@@
An@@
Sofya
h
os
kararı
lerle
24
ülkede
Güvenlik
Bakanlığı
ah@@
masının
om@@
ama
bölge
ifade
toplam
Genel
Mladiç
22
mesinin
Erdoğan
kur@@
mi
Bükreş
Güneydoğu
manın
Demokrat
maları
r
çoğu
barış
farklı
19
Batı
düşük
Almanya
23
çözüm
28
ekonomi
hale
ik
süre
iyle
diğini
durum
lan@@
kon@@
yaşanan
savunma
tı
yılın
gel@@
lık
ıp
ec@@
üzerine
gerekli
hazır
na
im
aları
az@@
p
alı
yine
iste@@
26
küçük
aday
Yardımcısı
Ş@@
iyor
artık
be@@
düzey
oluşan
ülkeleri
yolunda
9
2007
suçları
yaşındaki
Rum
is
nde
ecek
tr@@
lideri
yok
ag@@
ha@@
bakan
ettiği
Ar@@
yabancı
ülkesinin
yargı
etme
19@@
edecek
olmadığını
unda
ka
halinde
af@@
2008
ülkedeki
günlük
çalış@@
katıldı
iddia
sorun
Ulusal
par@@
zorunda
z
bi@@
teslim
Irak
acağını
satın
ç
ic@@
ter@@
2@@
olumlu
Yugoslavya
bulun@@
ey@@
ab@@
ür@@
zamanda
İki
organize
konuşmada
bağlı
sonunda
ICTY
ulaş@@
kredi
Ç@@
ok@@
se@@
as
başta
kar@@
lider
29
ünün
ap@@
kap@@
boyunca
Zagreb
dair
50
birkaç
çık@@
ö@@
2006
özellikle
buna
n
çıkan
yasa
uygun
burada
masından
ülkelerin
reform
leriyle
sorumlu
arada
kazandı
Mar@@
elektrik
Al@@
2005
nda
kuzey
bak@@
meleri
sa@@
si
sun@@
izin
herhangi
mü@@
3@@
kötü
Slovenya
sağlık
ke@@
iye
merkezli
ticaret
açıkladı
ti
yüzünden
enin
olacağını
yandan
se
ım
getirdi
hâlâ
yaptı
ış@@
yetkili
bölgede
UNMIK
man@@
açtı
menin
üyeliği
kazan@@
tut@@
2009
Fransa
öne
Romen
henüz
çağırdı
adım
takdirde
ov@@
raporda
konulu
say@@
and@@
baş@@
erken
sat@@
erek
Cumartesi
ca
sahibi
muhalefet
tarihi
ülkeler
Merkezi
hükümetinin
toplum
ağ@@
ülkelerinin
Boris
men@@
bunların
larıyla
ce
iç@@
ır@@
Kar@@
mümkün
nasıl
temel
bağımsızlık
yapan
ina
indeki
kentinde
gösteriyor
et
sa
Mahkemesi
ed@@
yılı
yolsuzluk
yardımcı
kaydetti
yayınlanan
100
düşün@@
Dairesi
dur@@
ut@@
görüş@@
2010
türlü
bağımsız
meclis
Kostunica
edilmesi
or
ettiğini
dil@@
gerçekleşti
yle
bilim
iler
doğru
ih@@
acağı
başlarında
bölgedeki
açıdan
Rehn
alın@@
bilgi
olduğuna
yaşayan
ati@@
sonuna
aya
uy@@
len@@
gi@@
haline
zor
temsil
serbest
40
Anlaşması
anın
th@@
yıldır
altına
yaş@@
ılması
lu@@
masıyla
gör@@
ilan
süren
tü@@
sivil
.@@
eri
gerçek
yetkilileri
süreci
karşıya
op@@
verilen
görülüyor
mevkidaşı
mıştı
katıl@@
ken
lo@@
veren
ülkeden
asında
aralarında
B92
madan
önceki
turizm
İtalya
Parti
doğrudan
ele@@
vergi
yar@@
şimdi
iz
asını
KFOR
beri
etmeye
haber
üyeleri
res@@
adı
ak
küresel
rol
suçu
ül@@
ünü
sosyal
ılan
da@@
anlar
anlaşması
başlıca
etmesi
ötürü
duyurdu
ilişkileri
ır
AGİT
Birliği
tür
İnternet
üçüncü
gerçekleşen
öner@@
geliyor
dünya
ko
proje
meden
İş
dönemde
ük@@
asına
yolsuzlukla
üne
1995
dön@@
mal
hala
vize
partisi
ter
doğ@@
oranında
İngiltere
diler
grup
ön@@
Ortaklık
ist@@
bırak@@
asının
demokratik
Mil@@
petrol
Sorumlu
ye@@
1@@
oy@@
çek@@
olmasına
parlamento
eş@@
gir@@
Adalet
c
söyle@@
makla
dünyanın
kez
net
2003
sözcüsü
Washington
çalışma
Ahtisaari
hakkındaki
dışişleri
top@@
alacak
art@@
neden
işaret
oldukça
um
mekle
AKP
PKK
başarılı
31
lar@@
v
abilir
alar
artış
bul@@
ediliyor
hi@@
Sırplar
The
başına
bundan
onun
Zoran
ederek
edildi
yarat@@
değiş@@
makta
ov
uk@@
ans@@
kişinin
cumhurbaşkanı
toplantısında
başar@@
belediye
önde
EULEX
bir@@
man
sağlayacak
ica
g
BBC
bütçe
dışında
liği
mekte
4@@
artır@@
üzerindeki
benzer
mahkeme
Nikola
şirketi
durumu
ait
lığı
ülkeye
şiddet
Sekreteri
bugüne
genç
güven@@
od@@
kaldır@@
konuştu
sorunu
önünde
geniş
parçası
sonraki
yas@@
anlamına
cumhurbaşkanlığı
yılından
es
film
ou@@
çağrısında
yeterli
Rus
yedi
alma
sahipliği
Barış
merkezi
mişti
yarış@@
getir@@
sözlerinde
tak@@
eleri
ordu
ovski
C
S
60
diye
konusundaki
lu
dönem
kalan
veril@@
sekiz
gerektiği
masında
ıldı
ilişkiler
Festivali
anlaşmanın
halkın
seçimleri
sözü
T
böyle
konuş@@
sayısı
tekrar
vurguladı
Üniversitesi
ıyorlar
yılki
önem
ıları
ikili
liderleri
yasal
ci@@
kes@@
sağlamak
gönder@@
hakları
ia
başlat@@
Savunma
anayasa
1999
seç@@
Yüksek
uz@@
yetkililerin
bakanlığı
olmayan
yüzden
ülkeyi
şirket
hal@@
ım@@
ırken
dizi
mada
Basescu
adet
ere
kontrol
istiyor
müzakerelerin
belli
teknik
Kon@@
İstikrar
tamamen
eceğini
ün@@
Komisyon
ettiler
tehdit
giderek
kat@@
konu
almak
boru
j
Alman
yan@@
Sanader
gerçekleş@@
reformları
kuruluşu
Berişa
ilerle@@
statü
ada
hava
mu@@
onu
sür@@
sürekli
GSYİH
abil@@
dığını
bulunduğu
İçişleri
halkı
nden
den@@
işbirliğini
yardımcısı
A
çalışan
politika
ülkesi
ila
statüsü
ir
olmaya
O
koruma
medya
terör
su
umut
yapılması
5@@
Rumen
işle@@
isinin
nihai
çağrıda
birinci
halkının
ru@@
saldır@@
san@@
neredeyse
yılına
Avrupalı
kadın
hizmet
merkez
üz@@
ja
ön
anlaş@@
mesinden
P
Gül
bakış
500
anı
bugün
K
aşırı
200
Kürt
Parlamentosu
avroya
dikkat
DPA
sel
siz
Miloseviç
gün@@
sürdü
yoluyla
müzakere
yönetim
Karadziç
kaynak
du
ler@@
madı
sor@@
f
ız
ci
hareket
del
tur@@
baş
sağlan@@
undan
ilerin
tar@@
yılda
yasadışı
alan@@
başında
uzlaşma
öncesinde
halk
id@@
ındaki
düş@@
kriz
day@@
dir
memnuniyetle
adayı
uc@@
doğal
dığı
oluştur@@
tartış@@
ama@@
hemen
verildi
söylediler
çi
aj@@
maması
olsa
ısı
toplumun
Atlantik
emekli
sistemi
isini
spor
esinde
sırada
medi
yaz@@
azınlık
ndan
olası
to
der@@
olmadığı
...
büyüme
dav@@
malarını
uyla
yol@@
bağ@@
hiç
ölçüde
düzenlediği
talep
azalt@@
Doğu
Gruevski
arası
madığını
Kalkınma
bunlar
han@@
mas@@
Recep
dağıt@@
duy@@
giden
tanım@@
gümrük
suç@@
Üyesi
Jovanoviç
karşılaş@@
kan@@
ko@@
sürecinin
tin
1990
ce@@
kesin
oranı
soruşturma
eceği
tan@@
van@@
anlaşmaya
il
seçimler
Tayyip
binlerce
ch@@
olabilir
uş@@
çünkü
üs@@
alanında
eli
güvence
istikrar
2002
St@@
görevi
maktadır
nükleer
ıcı
desteği
Enstitüsü
sız
Ponte
Yugoslav
liderler
luk
uzmanlar
yor
M
din@@
göz@@
ıdır
Haber
teşvik
hedef
zira
öte
Orta
geliş@@
bas@@
baskı
bin@@
dini
defa
potansiyel
çalışıyor
iktidar
Avusturya
isim
malı
sorunları
Kurulu
Güney
iti@@
başkan
ediyorlar
gaz
kendisini
he@@
gösteren
lama
milletvekili
olma
olup
zarar
ör@@
Müslüman
euro
git@@
çıktı
ımı
8@@
girişim@@
har@@
ta@@
ortadan
yüz@@
mediğini
bölgenin
sürüyor
ık
2001
Sosyal
imi
us
Sırpların
engel
ılmış
koy@@
mal@@
olumsuz
sonuç
tek@@
mesinde
Ö@@
taraf
may@@
su@@
ız@@
Ajansı
do@@
sağlay@@
ılar
civarında
ticari
ıya
uygulan@@
bakanı
gerek
müdürü
isti@@
2011
gü@@
geçiş
yapıyor
yayın@@
yaşam
abileceğini
hızlı
koalisyon
planlıyor
yat@@
dava
kaçak
kim@@
yapıl@@
ık@@
sürecini
aların
Maliye
bizim
ni
üy@@
Ratko
tır@@
ılıyor
ara
ayın
insanların
orta
demokrasi
günlerde
artan
ıs@@
edi@@
gerek@@
ısrar
ladı
madalya
üyeliğine
Büyükelçisi
mesiyle
mı
söyleyerek
7@@
isine
yakında
yorum@@
kapat@@
Gotovina
bekle@@
söylüyorlar
Yeni
kaldı
kültürel
madığı
mediği
yak@@
İngiliz
Macaristan
liğini
operasyon@@
yapmak
alınan
destekle@@
projenin
teşkil
gazetecilere
merkez@@
takım
etme@@
ef@@
tarım
kas@@
toplantı
fa@@
görüşme
isteyen
ing
yanlısı
yapacak
yen@@
İş@@
am
du@@
ova
Libya
dokuz
görüşmede
plan@@
solda
tepki
hukuk
partinin
verdiler
yön@@
yürürlüğe
Demokratik
göz
olma@@
uygula@@
yaptıkları
öz@@
protesto
sorunlar
olasılıkla
planı
Olimpiyat
bazıları
partiler
uyardı
vadeli
6@@
Solana
verme
ılacak
New
Vojislav
abilecek
bekliyor
if@@
müzakereleri
üzerinden
İran
Mesiç
cu
dılar
hattı
yen
aylık
değerlendir@@
faaliyet
imiz
sağla@@
70
Ashdown
dağ@@
liderliğindeki
ser@@
işbirliğinin
malarına
mede
onayladı
toplantıda
beklenen
gösterdi
planlanan
silah
yaklaş@@
eviç
kurul@@
rapor
1992
katılan
lay@@
to@@
Ko@@
etkili
ip
silahlı
suçla@@
İnsan
Cinciç
anlaşmayı
arı
konuda
tanı@@
R
açıkla@@
kanıt@@
savun@@
uyuşturucu
açıldı
yerli
Er@@
ilerinin
sonucunda
bu@@
for@@
kay@@
piyas@@
sert
sır@@
ılmasını
ayr@@
stratejik
bildirildi
inan@@
ılara
altın
analistler
değer@@
doğalgaz
uyor
elçisi
görün@@
yürütülen
olduklarını
ihtiyaç
komşu
kurulması
mer@@
Br@@
Film
Kültür
acağına
acil
alarının
başbakan
edeceğini
mahkemesi
tarihli
ur
yolu
Slobodan
alarını
Baş@@
gö@@
layan
asker
eylem@@
hak@@
geçir@@
Ceza
Devlet
bar@@
esinin
yer@@
Hollanda
Srebrenica
tarihleri
çaba
İsrail
araştırma
sonuçlar
önüne
2000
Roman
bakanları
davet
kararını
birleş@@
düşünüyor
çerçevesinde
esine
görüşmeler
je
özelleştirme
Fransız
Re@@
geçici
katkıda
koviç
sonucu
gelecekte
dek
eye
uygulanması
olmakla
somut
asyon
gen@@
alındı
gelir
polisi
tahmin
taşıyor
görev@@
lanması
Sosyalist
paylaş@@
seçimlerin
sok@@
sürdür@@
300
lük
programı
tığını
kendisine
ul
yerini
ski
iade
yapmaya
ünde
İlk
ayrı
haberlerinde
çevre
ş
SAA
devletin
elerini
partisinin
grubu
tal@@
35
Ordusu
alınması
dü
meli
övgüde
ünden
80
Arşiv
açıkça
ge@@
hayata
kil@@
ort@@
acaktır
ig@@
STK
dıkları
kü@@
adan
yani
Ü@@
eti
güç
kenti
veriyor
yay@@
çocuk
ılığı
0@@
işsizlik
kö@@
savaş@@
tedbirler
teklif
tur
yal@@
yaz
Derneği
dönüş@@
gerçekten
gözden
hakkı
şirketin
alarına
başvur@@
iddi@@
raporunda
I
karşılıklı
Kesimi
alması
ban@@
başkanlık
kamp@@
nitelendirdi
ola@@
oranda
sık
yönetimi
ıyı
Bar@@
görüşmelerde
kurulan
meyen
dır@@
kaç@@
sal@@
Ak@@
başla@@
rekabet
tarihte
uz
Par@@
ac
gücü
Grubu
Müdürü
diplomasi
durumun
engel@@
hapis
larındaki
mektedir
oluşturuyor
sınır@@
tutuklan@@
verecek
Ticaret
diplomatik
fi
kaydedilen
liyor
maktan
miyor
pro@@
Bo@@
alanda
saygı
yanıt
örgüt
General
kilit
Olli
finans
kır@@
pazar@@
ran@@
vermek
yayınladığı
yık@@
ış
B
Meclis
edilmiş
kesinlikle
lardaki
müzakerelerinin
olmasını
ıyordu
hazır@@
reformu
seçimlerde
Dodik
asyon@@
lik@@
reformların
seyahat
usu
duğu
gizli
iktidardaki
konuşmasında
mo@@
ağır
ıla@@
esini
sev@@
tu@@
uygulamaya
ımız
banka
hav@@
örgüt@@
Ekonomi
Luka
bağımsızlığını
başkanlığını
görülen
insanlar
olmadan
siyaset
yılındaki
ıların
Dayton
değişiklik
ihtiyacı
komutanı
ortalama
ren
yönde
İtalyan
gez@@
iyorlar
olanak
En@@
geleneksel
uygulama
yıldan
ılı
Podgorica
York
dar@@
men
aldığını
altyapı
dü@@
muş
sürecinde
Zagrep
almaya
olacaktır
uk
Ch@@
otur@@
ub@@
dışı
lü
nüfus
olay
Papandreu
istifa
layarak
tığı
ılmasına
Annan
Seydiu
ortak@@
göreve
olay@@
verilecek
belirtiyor
geleceği
sağ
Radovan
adımlar
inanıyor
let@@
müzakereler
temsilcileri
çiz@@
mayacağını
Banja
ayrıl@@
dolar
durum@@
endişe
etkinlik
eyaletin
kurma
mez
onları
tasar@@
x@@
Arnavutlar
başlattı
düzenle@@
güç@@
it
mıştır
tem@@
umu
ziyarette
imzalanan
oluyor
yaşam@@
ra
ziyareti
Genişlemeden
Or@@
vi@@
İslam
ağı
dikleri
duyur@@
eşit
makamları
ni@@
yardım@@
belirten
diyalog
olacağı
söyleyen
yasanın
belirtildi
binden
hatta
kolay
son@@
şart@@
kad@@
reformlar
sözleri
tir@@
edilecek
leş@@
örneğin
Scheffer
bo@@
yıllardır
üyle
Eski
büyü@@
genişle@@
iler@@
içindeki
reddetti
Federasyonu
Hoop
başk@@
hedef@@
km
sisteminin
temsilcisi
Ortodoks
ilere
imzaladı
â@@
çabalarını
ani
ark@@
ber@@
seviy@@
birisi
idari
ize
mek@@
mıyor
tamamlan@@
up
haberlerde
imzaladılar
laş@@
sektörü
toplumsal
zamandır
Amerikan
Boşnak
Merkez
Tomislav
adalet
ail@@
basında
seçil@@
tanın@@
uyarınca
İspanya
ilen
inc@@
inşaat
istedi
ıyoruz
alara
görevdeki
görül@@
suçla
çalışmaları
eleştir@@
kapsamlı
tanınmış
9@@
biraz
hayatını
kazanan
kız@@
por@@
taraf@@
gu@@
ihtilaf@@
kampanya
laştır@@
saat
sayesinde
sorunun
ıt@@
durumunda
ist
zor@@
D
araştır@@
futbol
getiril@@
hitaben
ilişkilerin
vatandaşların
çabaları
analist
boz@@
irken
kurumları
yet@@
1.@@
Abdullah
ent@@
partilerin
çöz@@
Moskova
etmeyi
ic
lık@@
mekten
oldukları
tra@@
ısına
E
sürecine
yapma
ışı
90
ali
ilerini
ilgi
ken@@
şart
Birliğe
yıllarda
alarak
ede
beklen@@
dik@@
haberlere
karar@@
memesi
terk
Dragan
istediğini
partileri
ziyaret@@
borç
destek@@
fiyat@@
meyeceğini
mil@@
milletvekilleri
ste@@
ılarının
Ne@@
belgede
kararın
mar@@
Komitesi
Suriye
ekonom@@
getirmek
alarında
dolarlık
tik
Çin
kısmı
leme
F
ebilir
uğ@@
ısının
Afganistan
Ali
başlayan
bölgesinde
emin
gecik@@
ildi
imzalandı
işi
milliyetçi
min
müzakerelerini
ren@@
örgütü
değer
ederken
getiren
köy@@
taraflı
ten@@
undaki
biçimde
değişiklikler
gazeteci
halk@@
saf@@
sağda
çatış@@
üyor
mahkemenin
mücadelede
sürecin
televizyon
yon
öngörülüyor
abileceği
engelle@@
etki
hızlandır@@
mahkemesiyle
yapacağı
ıma
cı
geldiler
ihlal
kan
süre@@
çev@@
Nikoliç
bunları
lanıyor
sağlama
vardı
açık@@
eler
indir@@
izle@@
kaybet@@
İgor
adi@@
bildiride
bölgesi
eceğine
çekil@@
öde@@
ılarını
Fatmir
adil
soruştur@@
belirtiliyor
geldiğini
gitti
katılmak
mayan
yaşan@@
dik
erkek
lerindeki
projesi
ses@@
Adriyatik
Di@@
VOA
aday@@
elere
elerin
len
malara
gar@@
herkes
kalkınma
oğlu
sayısının
vet@@
yanında
ger@@
gerçekleşecek
sen@@
çe
Kuzey
Ro@@
ip@@
yıla
bize
malarının
ob@@
onaylan@@
görüşmek
içişleri
parti@@
sundu
suz
Çek
ödül
Hakları
Ser@@
Zrvenkovski
biz
duğunu
hukukun
cez@@
krizin
memiş
onay@@
sergi
toplantısı
verdiğini
Man@@
Vladimir
aile
and
atı
bildirdi
görüyor
kamuoyu
likleri
min@@
üyelerinin
şartları
grubun
heyeti
röportajda
fir@@
gazetesinin
görünüyor
hedefi
jan@@
çoğunluğu
şeyi
G
girişim
puan
uzak
lığa
ton
verilmesi
ülkelere
ülkelerine
gi
kalma
komünist
kuruluş@@
kut@@
lamak
sin@@
uygulanan
üretim
amacı
başa
durdur@@
nüfusun
tarih
Örgütü
ıc@@
ıydı
150
400
Kal@@
be
dayalı
kararlı
malar
sü@@
şirket@@
In@@
Meclisi
alt@@
bağış@@
durumdaki
kir@@
kol@@
olursa
ona
onlara
sonu
taş@@
Bir
Sali
Viyana
gr@@
ha
ifadesi
kişilerin
kurtarma
öl@@
Karamanlis
Ohri
birçok
bununla
ces@@
gazetesine
getiriyor
ing@@
sil@@
zamanı
2012
ciç
ilerine
olasılığı
oluş@@
tab@@
toprak
yazar
yıl@@
ünlü
bildir@@
tarih@@
uyarıda
ısını
1991
Bor@@
Goran
anl@@
luğu
malıdır
sonuçları
toplum@@
açıklama
açıl@@
karmaşık
rol@@
sah@@
18@@
bölünmüş
güvenli
yüksel@@
Jeremiç
Mitrovica
Ste@@
Vuk
ge
istikrarı
kr@@
ulması
yakalan@@
ıy@@
Mir@@
RL
haberine
has@@
işe
kurum@@
maların
sak@@
sektör@@
süredir
Haşim
Temsilci
düşünüyorum
etmekle
kanal@@
yakınlarındaki
önceden
arab@@
başlayacak
düzeyde
ede@@
eh@@
gelir@@
gra@@
görevden
imizi
takımı
20@@
Enerji
RFE
Rad@@
ilmesi
karış@@
memnun
Pro@@
ebil@@
fil@@
ili
pazar
ula@@
yük@@
ıda
şehir
FT
bloğun
kor@@
yetkil@@
öğretim
Polonya
duyduğu
ikna
yu
Barroso
SFOR
eyi
firması
geçerli
tes@@
yayın
Savaş
adına
belge
iyileş@@
kayb@@
olsun
per@@
verg@@
üreti@@
derecede
kararl@@
politikası
sürece
yönetmen
öğren@@
bakanlık
dünyası
elinde
liğe
maç@@
okul
uzman
vak@@
Mu@@
SE
aj
arın
birlik
gerekse
izi
ri
uyar@@
yargılan@@
çağr@@
1998
bask@@
biri@@
deniz
hat@@
toplan@@
dir@@
görüş
ug@@
verici
Öz@@
ıyorum
Har@@
altını
döneminde
itibaren
süreç
Kupası
b
kaydedil@@
kaçakçılığı
program@@
toplu
yapmayı
Moldova
anoviç
arz@@
kurumsal
seçimlerinde
çoğunluk
hazırlan@@
ilik
melerini
onların
oran@@
sistem@@
teknoloji
tutum@@
yarg@@
çağır@@
askıya
asyonu
dıktan
hak
kaz@@
vermeye
yaygın
zorlu
Demokrasi
bildiriliyor
görüşündeler
güvenliği
konuyla
Ber@@
Milorad
Per@@
altındaki
hayal
ilk@@
laması
nı
sigara
sp@@
sürecek
Bakanlar
dayan@@
dır
mak@@
reform@@
yoğun
öğrenci
acaklar
alarda
bilir
düşür@@
fon@@
gerçekleştir@@
hükümete
liğinin
yerek
çab@@
çekti
Halk
Telekom
asındaki
başlaması
girişimi
görevli
iyet
korunması
şark@@
000
Kr@@
ade@@
artırmak
asla
dikten
hazırlanan
karşıla@@
kork@@
mev@@
sağlayan
taşıyan
tedbirleri
terörle
yalı
Bakan
Noel
Traian
ben
dolu
miştir
program
Özel
TV
Yorgo
bilgisayar
ide
resmen
sonlarında
takım@@
telefon
İttifak
Pet@@
anların
eg@@
kıs@@
mayacak
maz@@
muhalefetteki
temsilciler
uzman@@
ülkelerde
0,@@
Bel@@
Bu@@
dim
meler
yüzlerce
ıldığı
Mal@@
acağız
aldılar
başlay@@
bölün@@
din
duruş@@
filmi
ilgilen@@
istikrarlı
kab@@
kesim@@
mesele@@
rolü
sağ@@
sorumlusu
süreç@@
ve@@
yetkililerle
4,@@
açılan
düzenlendi
dık
koşul@@
mamış
zaten
öden@@
45
George
ceza
ince
noktası
tehlikeye
önlemek
ıldığını
Paul
ikisi
kuş@@
tartışma
Belediye
Birliğin
belediy@@
diğine
görmek
içer@@
lanan
temsilc@@
ulaştı
başarı
bor@@
güven
mahkemeye
vur@@
düzenledi
ff@@
gerçekleştirilen
sorunların
turist
vermesi
Ahmet
acı
birinin
br@@
gelecekteki
osu
satış@@
sergil@@
sini
tespit
yasak@@
üstlen@@
artırma
cep
davran@@
ime
melidir
sonrası
sözleş@@
yakın@@
çevre@@
bat@@
derhal
eğ@@
kaydet@@
santral@@
seviyede
siz@@
yetkilisi
şunları
Başkan
Georgi
bi
geçti
harekete
ili@@
of@@
oyu
sel@@
çözül@@
şimdiye
atılmış
değiştir@@
kimse
pat@@
referandum
siyasiler
Bush
birliği
işbirliğine
yapması
özgürlüğü
Branko
San@@
açtığı
bes@@
diklerini
dış@@
gazetesi
gıda
iyet@@
raporu
seçimlere
yavaş
Geçen
Mo@@
Tariceanu
belirle@@
bulundular
düşüş
ecekler
sağlanması
zaman@@
ük
ülkelerden
Ban@@
Lajcak
anlaşmasının
mini
okul@@
oz@@
sal
tah@@
tür@@
ust@@
Antonio
HDZ
Parvanov
bü@@
doğruladı
gider@@
idi
kişisel
rakam
çalışmaya
Anayasa
Radiç
Ver@@
bekleyen
incele@@
istiyoruz
nik
polisin
pr@@
rapor@@
yanlış
2,@@
Bank
ann@@
becer@@
belirlen@@
iliyor
savc@@
sektöründe
siyaset@@
tercih
ığ@@
fikir
idir
ilerden
kara
kendisi
olabil@@
sız@@
w
yasayı
Do@@
Linda
kıyasla
landı
sar@@
yardımı
İçin
EBRD
fark@@
görevini
görüşmelerin
götür@@
layacak
meyecek
tatil
tır
uyorlar
örnek
Mer@@
bütç@@
der
ihracat
lü@@
müzakerelere
tamam@@
özgür
Pan@@
açan
düzenlenecek
kurulu
kın@@
öncesi
Her@@
aktif
açıklamasında
kendilerini
koalisyonu
mez@@
müş
olanağı
profesyonel
teknoloj@@
İsviçre
Akdeniz
En
alk@@
dikkate
geldiği
katılma
kişilik
lerdeki
merkezinde
sıkı
Karadağlı
alanlarda
dur
ez@@
geçiril@@
korun@@
müz@@
müzakerelerine
tasarruf
Karadaku
amadı
arken
asıyla
edebil@@
eti@@
etk@@
fer@@
ifade@@
koş@@
lin@@
sağlam
süresi
yon@@
üye@@
75
Top@@
anlığ@@
eme@@
gele@@
genişleme
getirilmesi
katı
mem@@
ımızı
At@@
Li@@
Pap@@
hareket@@
ho@@
krizi
ılarına
5,@@
Hafta
kriz@@
müzik
tartışmalı
Sor@@
dığına
eylem
mesele
plan
proj@@
suçlu
yılının
İvo
,@@
Amerika
Londra
ada@@
ari
edip
halka
ihracat@@
madde@@
sunduğu
ut
Nik@@
enflasyon
etkile@@
liğine
luk@@
maaş
popüler
sek@@
standartlarına
stratej@@
suçlanan
Beta
Kur@@
Sloven
bel@@
inci
iniz
kalk@@
sağladı
toplant@@
yılları
çaplı
Schengen
acaklarını
alar@@
bölgeye
fırsat
karşıladı
karşıtı
katılıyor
lam@@
lıkları
Se@@
Ukrayna
anket@@
ihal@@
meyeceği
Dünyasında
ankete
başkanlığı
elerinin
etmiş
rot@@
teklif@@
öldür@@
üm@@
üyeliğinin
İyi
Karadeniz
Sch@@
ayındaki
bank@@
dığında
haberlerine
işleri
lamaya
po@@
sonuç@@
vatandaşları
ılmasının
6,@@
Bil@@
belirgin
bölümü
kalacak
karşılığında
kişiler
melerine
mut@@
tarafı
vazgeç@@
x
yararlan@@
Georgiev
etkilen@@
kom@@
ou
sağlıyor
seçmenlerin
sözde
öngören
Milan
Stipe
ans
bek@@
kul@@
kültür@@
met@@
milli
savunuyor
tesi
Kor@@
N
Si@@
girdi
istem@@
ju@@
kaydettiği
odaklan@@
ord@@
oyun@@
sözlerini
çı
başsavcısı
cul@@
ecektir
ekonominin
fazlası
güçlendir@@
hizmet@@
isinde
karş@@
ladığını
maaş@@
vatandaş@@
ödeme@@
üçte
İşbirliği
55
Javier
Mi@@
alanlarında
edin@@
kaçır@@
ket@@
seçmen
yapıldı
bulmak
kalkın@@
lığını
olduğundan
rov@@
teşkilat@@
şeyin
aktar@@
eğlence
grup@@
kurumlarının
mesaj
sırasıyla
tarihinde
yasaları
çözüme
şartlar
şeklindeki
14@@
almayı
ayır@@
bazda
diz@@
festival
gelen@@
ges@@
iyordu
kaynağı
korumak
lis@@
nedeni
sorumluluk
toplumu
yatırım@@
ıkları
Ad@@
Av@@
Ban
Buckovski
beklediğini
birini
ilerle
kentin
nün
tutukla@@
ulan
3,@@
ard@@
eli@@
etkil@@
hesap@@
insanları
çabalarına
ene
entegrasyon
etkinlikte
etmesini
kasab@@
misyonu
tarafın
çerçev@@
ödülü
önerilen
Ger@@
Nehri
Tar@@
andığı
can@@
elen@@
gördüğü
kurumlar
larken
temaslarda
uzat@@
üre@@
ğini
ışık
Novi
Talat
borç@@
içeren
kazandır@@
lük@@
nak@@
yürüt@@
önünü
15@@
Fil@@
Macar
Martti
Mü@@
artırılması
diplomat
gal@@
gönderil@@
görüşmesi
idare
kent
kilometre
oğ@@
prosedür@@
yeşil
şampiyon@@
asıl
başbakanı
dev@@
dördüncü
katkı
kaçın@@
kullanılacak
liğin
nüfusunun
programına
turnuv@@
zafer
antik
bizi
duyulan
dönemi
nite@@
ortaklık
ortasında
tamamlanması
tik@@
ucu
İs@@
Afrika
Ivo
Le@@
Liberal
başı
diğinde
geç
las@@
mülteci
rapora
sandalye
çift@@
örgütün
ılabilir
DP
Selanik
evski
genelinde
kontrol@@
lıyor
müdahale
olabileceğini
ortada
rak@@
suçladı
zayıf
çapında
Radyosu
açılış
bulunduğunu
etkin
etmesine
getirme
harek@@
heyet
kurmak
kuz@@
mad@@
operasyon
rebil@@
yaşadığı
yetkililere
As@@
Gal@@
Kostas
Petersen
Sanat
asından
düğünü
ekonomisi
her@@
mensuplarına
misyon@@
tiç
yazar@@
yaşıyor
çalışması
önündeki
ği
Bak@@
ayrıntılı
devleti
gaz@@
geliştir@@
kritik
lıklar
parç@@
rec@@
Tur@@
bilinen
bula@@
dev
devlet@@
hay@@
ndeki
verilere
şansı
BHF
Paris
alındığında
daire@@
geril@@
iptal
katıldığı
ke
onayla@@
radikal
telefonu
uları
Jessen
Tan@@
anayasal
aylarda
düzenli
güçleri
haber@@
haklarını
ilerinden
kent@@
lenen
normal
toplantıya
amaya
can
ent
mayla
mesaj@@
vatandaşlar
yağ@@
yolundaki
Fran@@
değildir
duyuruda
etmişti
hastan@@
makamlarının
sim@@
tılar
Hasani
International
Rugova
bal@@
bur@@
ekliyor
imzal@@
iydi
süreyle
tiyatro
şüpheli
edilemez
erdi
kısmını
reddet@@
zengin
araç
arkadaş@@
ata
dolayısıyla
elç@@
esinden
inanıyorum
kaf@@
metre
soykırım
yan
İsveç
Davutoğlu
edilmesini
gösterdiği
kabine
mey@@
mir
of
olur
sefer@@
temel@@
çocuk@@
şi
şirketler
De@@
Hükümet
Sar@@
anlaşmasını
doğrul@@
istihdam
kam@@
kıy@@
maruz
olmayı
planını
sayısını
seçim@@
taşı@@
yerleş@@
ülkelerinde
120
Merkel
Türk@@
asker@@
benz@@
etkisi
kaydedildi
mahkemesinin
çağdaş
çağrısı
öldürül@@
Asya
Belçika
Cukanoviç
Mon@@
Müzesi
News
cezası
davanın
düzenleme
hız@@
önem@@
Bek@@
Mit@@
Mor@@
Osmanlı
Seçim
belir@@
hukuki
kov
kuvvet@@
no@@
seçildi
çıkıyor
İn@@
Mücadele
Polis
alınacak
bulunarak
dairesi
diğ@@
eler@@
kolaylaştır@@
kuruluş
mamız
oyn@@
tep@@
yineledi
600
Dan@@
Tuna
VMRO
doğrultusunda
edildiği
faaliyetleri
iletişim
işlenen
parlamentonun
so@@
YTD
alarından
ağır@@
inşası
konuşma
tık@@
ziyaretinde
İkinci
Avusturyalı
DS
PSD
Sam@@
ad
aktarılan
des@@
dolaş@@
est
katılması
ledi
liderlerinin
onlar
tanık
10@@
Ma@@
Sal@@
bulunması
dem@@
düzenlen@@
eni
gil@@
gösterdiğini
hedefine
iv@@
kat
lat@@
lendir@@
lider@@
liderlerin
planlarını
tutul@@
üyeliğini
Bay@@
Blic
SDP
ediyoruz
sağlamaya
sermaye
öncelik
İl@@
ımını
13@@
Borisov
Sp@@
alarıyla
aslında
benim
dışındaki
firma
genelde
hayat@@
karşılan@@
kilis@@
sahne
uldu
Josipoviç
Teknoloji
Ter@@
adanın
boykot
diğer@@
elçi
etkinliğe
kalıyor
kurulacak
çocuklar
GDA
Jo@@
adını
ayla
dünyada
elerde
fırsatı
gruplar
görüşünde
istihbarat
iyileştir@@
katılımı
ley@@
liman@@
maz
re
sanayi
tel
van
zam
üniversite
250
Batılı
Miroslav
Sen@@
Sofia
Spor
bankacılık
bulma
ebileceğini
göç
katılacak
kentindeki
kullanma
minin
pay@@
tir
yanıt@@
yapıcı
Berlin
Co@@
Val@@
hizmetleri
ihraç
komisyon
lığın
memiz
sistem
talep@@
yetki
yıllar
Ön@@
çıkardı
L
alanındaki
avantaj@@
bakanlığının
başlatma
derin
düğü
enlerin
gor@@
hazırladığı
imza
mekaniz@@
muştu
müşter@@
olmaları
sorununun
yetiş@@
yorum
ötesi
ılarak
şek@@
Büyük
Car@@
Dimitris
Hay@@
esiyle
euroluk
kaybetti
konular
tanıt@@
tesinin
verimli
çalışmalarını
çeşit@@
Savaşı
açıklamaya
kuzeydeki
neler
politik@@
ulus@@
uyumlu
yonu
yurtdışında
çevir@@
dal@@
enler
istek@@
kaldırılması
sorununa
tekrar@@
vo@@
Bir@@
Dinkiç
alternatif
başlangıçta
co
finanse
gelişme
güney
kararının
kurumların
oj@@
ol
oloji
saldırı
tedbir
uzmanları
vatandaşlarının
alarla
açığı
cumhurbaşkanının
ekler
eleştirdi
izleme
lendi
patla@@
çekiyor
65
El@@
Stefan
belirli
dıklarını
eşi
fır@@
gören
ji
kendilerine
kullanıl@@
çoğunlukla
öğrenciler
DPMNE
Dav@@
alırken
co@@
dük@@
ekonomisinin
eksik@@
festivali
kullanılan
kısmen
ovska
pan@@
yaparak
ınız
1,5
800
Yatırım
abilmesi
ceğini
dar
darbe
gazete@@
giriş@@
harc@@
katılmaya
kurtar@@
teş@@
tü
ça
üni@@
Ekonomik
Finlandiya
Ge@@
attı
ayda
bit@@
dondur@@
duyg@@
iliği
kurum
memur@@
olayları
olduğunda
sayısında
standartları
toprak@@
uv@@
yükümlülüklerini
üreticisi
üş@@
16@@
DSS
Laura
cumhuriyet@@
faz@@
izni
likle
lilik
savcılar
tavsiye
yo@@
üçlü
ımın
şirketleri
CNN
EUFOR
Kosor
bana
duruma
gözaltına
idar@@
lj@@
ulaştırma
uzak@@
yansıt@@
yebil@@
ılardan
Bal@@
Carla
Drag@@
Temsilciler
birim@@
değişiklikleri
direktörü
heyet@@
hüküm@@
izlen@@
işten
kala
lus@@
mahkum
sinin
tav@@
tri@@
yla
yönetme@@
yıldönümü
ırsa
ığı
Şampiyonası
Ceku
Dış
Mostar
aki
amaç@@
ati
ey
geleceğini
gelerek
geliştirme
geçmiş@@
kadınların
kişiyi
kötüye
mecliste
müdahal@@
müzakerelerde
planladığını
sandık
tutuklandı
umutları
yin@@
ğin
ğinin
şartlarını
ihtilafı
lenmesi
olmasının
oyla@@
sorunlara
sınırları
ücret@@
1,@@
Gürcistan
Kat@@
Slovakya
andır@@
anlamda
böl@@
desteklemek
erişim
gücünün
hakim
halen
ici
tutuk@@
tutuklama
urken
uzmanı
şimdiden
Draskoviç
Markoviç
Mehmet
ale
bağl@@
belirttiler
bütünleşme
dan@@
fiyat
iden
katliam@@
neden@@
ros@@
sand@@
tamamla@@
tti
uç@@
zamanlar
Gün@@
Olimpiyatları
Sto@@
ademi
başlıklı
diğimiz
ertele@@
geride
getirmesi
itiraz@@
miktar@@
sürede
sık@@
sınırlı
yolda
zam@@
şebek@@
Ay@@
Gazprom
Jose
ass@@
faiz
hastal@@
kadınlar
kaynakları
mine
olağanüstü
olduğunun
planlanıyor
şirketlerin
0
Komiseri
Ol@@
Paddy
Pol@@
avronun
ayına
baz@@
geçmişte
görüldü
hangi
herkesin
inde@@
işler
kin
sunulan
tehlikeli
ydi
yenler
özel@@
üniversite@@
Bilim
Olimpiyat@@
Stanişev
adam@@
ib@@
kuruldu
sabit
zirvesinde
ümüz@@
üretimi
ıdan
KDV
Karaciç
atan@@
başarısız
diğerleri
don@@
ener@@
final@@
giriş
kazandığı
malıyız
mayın
nokt@@
olasılığını
olmaması
uyum
çocukların
İslamcı
32
Bloomberg
Dnevnik
Eğitim
Kan@@
Temsilcisi
almış
amaçlayan
are@@
ch
davası
fark
fe@@
gelmesi
içi
kavuş@@
kayıtlı
lemek
mahkemesine
sol@@
uğra@@
ılığ@@
PASOK
adli
dayanarak
escu
gan@@
kampany@@
kı@@
lan
oranının
satış
tanınan
uma
üp
Bur@@
Jaap
anlat@@
aykırı
bilg@@
birimi
biçim@@
duk
düzen@@
hikay@@
içine
lardı
sanat
strateji
sürdürüyor
tec@@
uncu
vizesiz
yakınlarında
yapısal
yardımc@@
yor@@
Bi@@
Hükümeti
Milo
bağış
bekliyoruz
düştü
koydu
liç
oranla
sanat@@
sayg@@
sınıf@@
ündeki
şefi
Birleşik
Birlik
Kıbrıslı
Nov@@
biraraya
bol@@
deneyim@@
ecekleri
fi@@
fiyatları
gerçek@@
gündeme
konser
konum@@
likler
pasaport@@
pos@@
sahip@@
suz@@
umuyor
vatandaşı
yasası
alardan
birinde
bulunmak
evi
gerekçe
istediği
kabin@@
9,@@
Hareketi
Jan@@
Japonya
Parti@@
anlaşmaz@@
cezalandır@@
görevine
ite
itiraz
karara
konferans
konular@@
kutla@@
müdür@@
omir
onaylanması
parlamentosu
rakam@@
silah@@
sorun@@
vereceğini
vererek
yapımı
yeri
yoksa
yur@@
Anadolu
Gu@@
Taçi
Turizm
ber
bünyesinde
canlandır@@
dayanan
görüştü
güzel
iddiaları
kampanyası
liy@@
meselesi
ovac
personel
seçimlerden
siç
yaptığını
ür
Mediapool
bah@@
bölüm@@
cinayet@@
dil
getirdiği
isim@@
konuları
makam@@
ndaki
sınırı
tiler
uğraş@@
zanlısı
önemini
7,@@
Cor@@
arama
bağımsızlığı
ders
değişiklik@@
iri@@
karşılık
kasabasında
kop@@
let
mac@@
nitelendir@@
organ@@
saatlerde
standartlarını
tüm@@
umduğunu
yaş
yöntem@@
34
Ante
Büyükelçiliği
Dev@@
Nastase
ajansı
artması
bakanlık@@
başkent@@
değerlendirme
ete
fırsat@@
giy@@
katılımcılar
kimlik
koru@@
olaylar
rejiminin
sanatçı
sürdürülebilir
tamamladı
umutlarını
yayınladı
yorlar
çoğunun
ödül@@
Günlüğü
Michael
Split
Temas
amac@@
aranan
dönemine
ettikleri
işlem@@
jan
kapan@@
katk@@
kayıt
koalisyon@@
leniyor
mes@@
sektörünün
sürerek
yaşay@@
za
CHP
Haradinay
ali@@
artıyor
bab@@
belki
daire
döviz
görüşmeleri
ilişkilerini
konferansta
maddi
suçlanıyor
tık
vek@@
Ciocoiu
EU@@
Nabucco
cezasına
düzeyinde
gece
gerektiğine
getirdiler
haberleşme
iyimser
kiş@@
ordunun
televizyon@@
yollarını
zirvede
önerdi
özelleştir@@
Kilisesi
Koruma
artış@@
demiryolu
komşular@@
liğinde
oylama
savcı
siyle
söz@@
viz@@
yakal@@
Arnavutların
Demokratlar
ai
azından
açıklanan
bol
dünyasından
grupları
kategor@@
kâr
lo
plana
statüsünü
yapmış
yasaların
çalışmalarının
Roma
UNESCO
amaz
doğru@@
evo
gerçekleştirdi
insanın
liler
nedenle
parlamentoda
planları
politi@@
ülkelerinden
Kaide
Marina
anan
ayından
açıklan@@
açıyor
bağlantılı
bilin@@
eğilim@@
faaliyet@@
ian
olmay@@
süreli
terörist
tin@@
yürüten
ze
üretic@@
Geli@@
araç@@
ast@@
avrodan
avukat@@
boş@@
değiştiril@@
giz@@
harcam@@
ice
iddiasıyla
ladığı
mayacağı
memuru
olayı
olmaktan
olmuş
paketi
ro
seviyesinde
sistemini
sı
uğr@@
vatandaşlarına
veriliyor
yaşında
yetersiz
zafer@@
36
Ljajiç
Mustafa
Roman@@
ankette
anları
bar
bulunacak
devr@@
entegrasyonu
fikir@@
fotoğraf@@
gençler
hizmete
konumunda
oluşuyor
tad@@
yatırımcılar
yerde
çözüm@@
öğrenc@@
İz@@
,5
SE@@
Sergey
açılması
başlatılan
cü
eva
göstererek
kapsayan
modern
mış@@
oyuncu
ular@@
yasalar
zanlı
çoktan
ğine
ılacağını
Böl@@
Daciç
Gre@@
Komutanı
Taci
Ti@@
bütün@@
destekleyen
desteğini
dün@@
eceklerini
fon
gümüş
hasar
olurken
ortamı
puan@@
tartışmalar
yoksul
zi
ılarından
şiddetli
Babacan
Blerta
Radikal
Rama
Yar@@
aleyhinde
anal@@
ba
buradaki
büyükelç@@
dis@@
dönüş
gerekecek
idaresi
lendiri@@
one
projeler
siyasilerin
tarihinin
yönetic@@
üst@@
üstesinden
şeyler
Arap
Em@@
On@@
Popescu
Recepi
UNDP
Yas@@
ağa
doldur@@
dım
ediyorum
geçirilmesi
güçlerinin
his@@
kleri
leştir@@
mahke@@
met
olacağına
projeye
santrali
sav@@
sorununu
tatbikat@@
usunda
yöneti@@
önerisini
Ho@@
Hırvatlar
Makedon@@
Pri@@
Stan@@
anlaşmazlık
arttı
bankası
değişim
ga
imler
kayıp
kondu
landığı
not@@
oluşturan
planının
tor@@
çalışmalarına
ödülünü
700
8,@@
Ab@@
Araştırma
EurActiv
Kaddafi
So@@
abilmek
adım@@
gelişmiş
havayolu
insani
les@@
metre@@
mon@@
muhalef@@
olduğ@@
pol@@
raf@@
sokak@@
yapılmış
Manuel
Nikolovski
askerleri
daveti
denetim
dönüştür@@
ertelen@@
fotoğraf
gelecek@@
grev@@
hattının
hazırla@@
ide@@
imize
komut@@
lenmiş
lerken
yürü@@
DUI
Dahası
Pav@@
adalete
alt
anlaşmada
bakanlar
bakanlarının
belirterek
bölgeler@@
emlak
ithal
kapasite@@
kar
kurdu
madal@@
ret@@
sak
taşın@@
temsilci
til@@
unut@@
yoksul@@
yoksulluk
çiler
ürken
Az@@
Kap@@
binin
erini
fu@@
ilave
işçi
kalıcı
kriterleri
milletvekillerinin
paralel
planla@@
İlişkiler
Kay@@
Uz@@
aracılığıyla
barışçı
büyük@@
cinayet
denet@@
fes@@
geliştirilmesi
görüşmelere
hazırlık
itibarıyla
karşısında
liste@@
miktarda
projeleri
rekor
sektör
sey@@
sizce
sürmekte
yazarı
özgürlük
2013
Eur@@
akis
anlaşmalar
birbirine
buldu
eksikliği
gazeteciler
görevlisi
ilerlemeyi
kav@@
kaçakç@@
larımız
madde
maliyet@@
meş@@
muamele
onay
org@@
tar
tavsiy@@
tutumunu
verdikleri
çözmek
ülkelerle
üret@@
37
Be@@
Vo@@
alanı
anlaşmazlığı
avroyu
azınlıkların
bay@@
belirsiz
düşüş@@
esindeki
günde
lanmış
mit@@
olmadı
sığın@@
yatır@@
ölüm@@
öneri
öy@@
üt@@
LDK
Makfax
Su@@
Yap@@
almasına
bastır@@
desteklediğini
destekleme
edilebilir
emniyet
erkekler
etmeleri
halkına
ilerletme
iyorum
işaret@@
korum@@
landır@@
layıp
oyla
uçak@@
yarı
zanl@@
önleme
İbrahim
İttifakın
Euobserver
NA
Tele@@
açacak
bulunuluyor
destekliyor
edilmesine
güçlendirme
hidroelektrik
insan@@
isten@@
izde
kurumlarına
laik
milletvekil@@
oran
ortam
suçlan@@
tecek
ticareti
çizdi
üstünlüğü
ğe
43
Fer@@
Guardian
Kanada
Sad
Vuyanoviç
Yeniden
bunlardan
faaliyete
geçmesi
hareketi
jik
kurban@@
referandum@@
sözleşme
toplumunun
va
Kofi
Pr@@
Sırplara
beklenti@@
bıraktı
edeceği
ekibi
haklarının
hükümetini
kökenli
liliği
lim
malarda
net@@
sine
sonucuna
tavır
tip
yapt@@
yapılmasını
yasaya
zamanlarda
zamanında
çözme
çözümü
ızı
33
Ermeni
Euro
Hak@@
Hal@@
Lüksemburg
Mac@@
Voyvodina
acakları
bağlantı
borcu
dür
ebilecek
ebileceği
getirmeye
hepsi
kuruluşları
minde
muhabiri
ortaklaşa
ortağı
takip
vermiş
yip
yoldan
çö@@
ödeme
şirketinin
!
17@@
Belgradlı
Kol@@
Vu@@
atları
eğiti@@
eşit@@
garanti
getirecek
hayati
işsiz
komuta
leyen
muhalefetin
olmayacak
ovo
planın
tedbir@@
toplantının
verim@@
çıkması
ığın
Gi@@
Mak@@
Robert
ate@@
azar@@
bağlant@@
bölgelerde
böylelikle
ca@@
cam@@
ciler
danışmanlık
dolayı
dum
eceğinden
fayda
festivalde
gerçekçi
hızla
koruy@@
koşulları
kıyı
maden@@
meclise
mezar@@
serbest@@
siyas@@
tehdi@@
tepk@@
ulacak
ücret
şartı
Cer@@
Clinton
aca
bilişim
ck
dol@@
etmekte
gelişmeler
ham@@
hedefliyor
konuk
lığına
mer
mevzu@@
redde@@
seçimlerinin
stat@@
tesis
ton@@
yum@@
asi@@
bence
boyut@@
doktor@@
edici
edildiğini
elin
eminim
eren
hazırlanıyor
ilerlemenin
iriz
meclisin
nispeten
oc@@
serg@@
söylen@@
talebi
terör@@
vadede
ven@@
çalışmalar
şey@@
1993
Aleksandar
Bat@@
Milososki
Oyunları
Putin
aktardığına
belirt@@
etin
hisse@@
ilerek
iri
kamuoyuna
kapalı
kariy@@
kuzeyindeki
kısmının
likten
oyların
rezerv@@
unsur@@
yet
ör
şikayet
1996
46
Davor
Dj@@
Eurovision
Hakkındaki
Konsey
Sarkozy
Suç@@
acağından
arac@@
bloğa
desteklen@@
endek@@
eriş@@
gerçekleşmesi
giren
halde
hükümet@@
konularda
kullanımı
laşma
mis@@
niyet@@
operatörü
oynadığı
sahte
siyon@@
yesi
çözülmesi
çıkarıldı
Ce@@
Igor
Plan@@
Yönetim
aksi
anayas@@
başkenti
eb@@
elektronik
göre@@
iyeti
kayıt@@
liğ@@
malarla
oluşturul@@
rolünü
tahmin@@
tığ@@
yordu
çalışan@@
çarptır@@
ılık
Daniel
Gaz@@
Milovanoviç
Siyasi
dj@@
dos@@
eline
emeklilik
gidiyor
hapse
ilik@@
istikrarın
kurulmasını
maliye
otomobil
rken
suikast@@
tesis@@
tim
çabalarının
İsti@@
48
Bro@@
Kom@@
Pop@@
Stankoviç
buluş@@
cil
emek
göstermesi
güvenliğini
hareketin
irler
izliyor
kaçakçılık
kitap
kırsal
müştü
performans@@
spor@@
varlığını
ğinde
ılarda
&amp;
Bakoyanni
SDSM
Sil@@
Tr@@
UAD
andı
anlara
anma
basına
elerine
etkinliklere
gerçekleştiril@@
go@@
hatt@@
ilişkiler@@
inş@@
işlet@@
kararına
keşf@@
liğinden
mah@@
no
ris@@
rüşvet
sistemine
söyleniyor
sürdürdü
tirecek
uydu
yse
çalışmak
Fo@@
adam
anu
ask@@
askerler
bölgesindeki
geliştiril@@
geçirme
görevlendir@@
gösteri
kuzey@@
lüğüne
ola
om
orum
oyun
rahat@@
tabii
temiz@@
tiği
vermeyi
öyle
2.@@
Durres
Miloşeviç
Plus
Sağlık
Yaz
birleşme
desteklemeye
elden
elektri@@
elinden
etkinliği
faaliyetlerini
fazlasını
hükümetine
ihtilaf
kart@@
kaçak@@
mükemmel
pe@@
ry
sağladığı
sistemin
tutuklanması
çıkart@@
47
Ben@@
Vakfı
acılık
ah
aleyhindeki
bildirdiğine
dular
ep@@
gördü
gösteril@@
haf@@
hakkına
hoş@@
imha
ithalat@@
konut
kovski
kriter@@
lav
lıkla
manı
seçimlerine
sisteminde
tas@@
tiğini
tören@@
vatandaş
yok@@
yönet@@
yönetiminin
çabuk
Bul@@
Bölgesi
Lefkoşe
ai@@
aksine
anayasaya
anla@@
ateş@@
düğ@@
gözlemciler
hafif
hassas
jiç
kanıt
lüğü
malardan
mu
nüfus@@
orada
projeyi
saat@@
sağlayacağını
tehdit@@
ticaret@@
yavaş@@
yolunu
zemin
öncelik@@
önlemler
üm
üyesinin
41
44
Akademisi
Doğ@@
Kos@@
Ortadoğu
Rice
asa
att@@
bakan@@
birleştirme
endiş@@
gazete
geçmiş
hissesini
ihale
je@@
kimsenin
kontrolü
krize
kurtul@@
lığının
malarında
mülk@@
mülkiyet
olanlar
rast@@
sonuçlara
tıbbi
yükseldi
çeken
51
Bayram
Du@@
Echo
Fr@@
H
Po@@
Zivkoviç
alış@@
anket
atör@@
başkan@@
diç
enerj@@
etti@@
hizmeti
organ
planına
skandal@@
sürdü@@
yapacağını
yebilir
çıkarıl@@
önle@@
özerklik
ücretsiz
42
Ci@@
HINA
Obama
Odası
PfP
Rum@@
ame@@
bakanlığından
başından
birleştir@@
değin@@
değişikliği
endi@@
festivalin
gerekir
göstermek
gündem@@
hiss@@
id
ilg@@
işkence
konser@@
kullanarak
lılar
mahkeme@@
matik
oynanan
refah
trafik
umuz
İşçi
Cumhuriyet
Ev@@
Gor@@
Kuvvetleri
USAID
V
alacağı
barik@@
bölgeyi
dayanıyor
diren@@
ecek@@
ihlal@@
karşılandı
kurmaya
lıklarını
minden
olan@@
performans
receğini
sunul@@
ulaşmak
yolsuzluk@@
çisi
ımına
AT@@
Bağ@@
Cumhurbaşkanlığı
Gru@@
Has@@
Hürriyet
Krasniki
Nebojsa
Pal@@
Pe@@
Sin@@
Tra@@
Valentin
amay@@
anlaştılar
ağ
başkanlığındaki
durumdan
geleceğe
getirdiğini
internet
katılımcı
kullanıc@@
muhtemelen
müttefik@@
seçilen
topluma
udur
usuna
uğu
varılan
Inzko
Pas@@
Sırpları
Topi
Vuk@@
acağ@@
artışla
açma
durumunu
eğitim@@
geli@@
gücünü
ilerlemeye
imzalan@@
kesiminde
kesinti@@
ki@@
konularında
miktar
miş@@
oynay@@
programın
rejimi
yapabil@@
yolları
zanlının
1000
38
Anlaş@@
Avustralya
adaki
amaçlanıyor
ateş
ağının
aşırılık
futbol@@
günleri
iu
iyoruz
lanma
liklerini
mağdur@@
sürdürme
sürdürmeye
taraflar
zorun@@
çıkarılması
öf@@
ölüm
ülkelerini
şer@@
Açık
CE@@
Der@@
Genelkurmay
Merkez@@
Tanjug
alık
araba
birine
bulundur@@
do
doğum
fin@@
ita
iyimser@@
karşılamak
larsa
milyonlarca
person@@
süreçte
tiğ@@
verilmiş
verme@@
yaralan@@
çilerin
öğretmen@@
ıf@@
Dur@@
Dusan
Lu@@
Politika
Pre@@
SP
Suçları
dalg@@
devral@@
deyişle
em
eser@@
fik@@
hedefleniyor
ilerde
kaya
kem@@
konferansa
kriterlerini
sunuyor
sözcü
sıcak
toplandı
yerinde
önemlidir
ılabil@@
ılık@@
Deutsche
Jean
Microsoft
Petar
ade
açılışını
bunlara
cezaev@@
farkında
gazetesinde
general
go
grupların
gönderdi
hatır@@
imin
isinden
lendirec@@
olmayacağını
olu
tehlik@@
vereceği
yatırımlar
yatırımı
yetkililerinin
çabalar
ülmesi
üstü
üyorlar
ısında
.com
Kürdistan
Mc@@
amaz@@
asgari
başlangıç
belgeleri
belirti@@
beşinci
cesaret
davada
değişikliklerin
dür@@
düzel@@
fayd@@
gazetec@@
geçirdi
hedefleri
ie
ikiye
inşaat@@
isiyle
iyileştirme
komisyon@@
maktır
mağlup
nedir
savaşı
sö@@
temas@@
yeterince
zar@@
örgütleri
ürünleri
Günü
KKTC
Kosov@@
Nano
Prlenda
Sav@@
aktardığı
ayaklan@@
ayrımcılık
aç
başardı
başlama
başlatılması
belgeler@@
cer@@
dost@@
gay@@
general@@
hit
kayn@@
kıl@@
mağaz@@
pazarlık
raporun
sendik@@
site@@
sitesi
sıkınt@@
tane
umut@@
up@@
usunu
uygulanmasını
yayınlan@@
yoruz
yıllarında
Ödülü
çı@@
üğ@@
İstatistik
2,5
85
Calin
Moisiu
Slav@@
alacağını
ant@@
arkasında
ben@@
by
bür@@
festivale
gençlerin
getirildi
geçi@@
gördüğünü
iyor@@
makroekonomik
sağlaması
sizlik
sonbaharda
soru
tazminat
töreninde
yüz
ürün@@
şah@@
şimdilik
Maroviç
alabil@@
au@@
aydan
açıklaması
bronz
dirme
dık@@
ekip
ela
eyalet
gerçekleştirdiği
geçecek
gide@@
gu
jeviç
karayolu
ker
macı
melerin
nes@@
pla@@
söylediği
yükselt@@
zayıf@@
çatışmalar
ılarında
ımızın
Genişleme
Muhamet
aldıkları
anti@@
cev@@
göçmen
haberler
işini
kalması
kişiye
kuş
köprü
mağ@@
meseleler
misyon
numaralı
olmuştu
parlament@@
sin
sol
sonuçlan@@
tiril@@
tu
uygulamada
yönetimindeki
İlerleme
Altın
Ba@@
Con@@
PDK
Zaman
alg@@
alılar
andığını
canlı
değerlendiril@@
eğitimi
finansman
finansman@@
göstergesi
hakim@@
hast@@
ilişk@@
istiyorlar
kimin
kurban
kısıt@@
mark@@
nerede
pahalı
paranın
suçlamaları
tutuyor
tırman@@
uluyor
çerçeve
Den@@
Mısır
Natasa
Son@@
alanları
amak
birden
bütünleş@@
iktidara
isti
iğ@@
işin
mektupta
oluşturulması
tanıyan
toplama
tör@@
yaklaşım
yere
çalıştı
önemi
İspanyol
MIA
Tri@@
Vlado
acak@@
batı
başbakanın
başlan@@
fikri
kadın@@
kaynaklanıyor
malarından
mensup
niyet
noktada
sanık
sağlanacak
seçimlerini
ska
taşıdığı
vir@@
yakından
yükümlülük@@
çalıştığı
şüph@@
1997
Am@@
Celiç
Divanı
Fuarı
G17
Gücü
John
Radyo
Tribune
W.
akta
başlıyor
belirleme
büyüyen
danışmanı
dolara
ef
gelmiş
gönderdiği
he
ika
ilaç
ira@@
istikrara
konuyu
koşullar
ku
med@@
mutabakat
olmasından
operasyonu
savaşın
seçti
sorunlarla
tedbirlerin
tis
törende
yaşandı
yenil@@
çıkar
ölç@@
ülkelerindeki
ülkesinde
62
Amerikalı
Avro
Cur@@
Facebook
Programı
are
beni
bilgileri
birbir@@
dak@@
düzenlediler
dığından
eci
edeme@@
eme
hedefini
ija
imizin
izledi
katılmayı
kullanan
olduğumuz
profesyonel@@
rek@@
sektöründeki
sektörüne
teşekkür
yazı
yetkisi
yolsuzluğa
zorunlu
Akımı
Boz@@
Vukovar
alışveriş
bayanlar
desteğiyle
diplomat@@
kavuştur@@
kutladı
liman
lov@@
mat@@
mi@@
saldırıları
soy@@
sözc@@
tarafsız
tarihten
turiz@@
umun
yum
çift
özelleştiril@@
İvan
ılarla
ımıza
Af@@
Bulgar@@
Filip
Haris
Mirko
Ves@@
Yak@@
belirlenen
biti@@
doğu
gereğini
göstermeye
güvenilir
ima@@
kalmış
katılım@@
kesim
loviç
lular@@
madaki
olas@@
olayların
oluşturma
rakip@@
risk@@
sefer
seçmenler
sırayı
uygul@@
ven
yanından
yönetim@@
zanlılarının
çalışanları
çarp@@
İktidardaki
53
Anlaşmasının
Bri@@
Geoana
Schilling
Tek@@
Yusuf
almasını
anlam@@
atma
azın@@
baskın
bilgilere
büyümenin
derec@@
dokunulmaz@@
erinin
etkinlik@@
etmektedir
eyalette
insanlara
katıldılar
ket
leşme
oranları
reformlara
sorumluluğunu
suçlar
sürdüğü
tesini
törenine
ucuz
yolsuzluğun
üyeli
ıktan
Alexander
Dubrovnik
EC@@
Ki
Portekiz
Tihiç
Vi@@
Zeljko
atıl@@
avukat
başarısız@@
böylece
düşen
ermesinden
etmenin
fatur@@
felaket@@
hedeflerine
iyileştirilmesi
laik@@
liderlik
melere
muazzam
oturum@@
rüzgar
sergide
sinde
tarafların
uygulanmasına
verilmesini
yardımıyla
öğrenim
Bütünleşme
Fonu
Herald
RS
Sol@@
Zvetkoviç
adığını
alım
amayacağını
atılan
ağını
bahse@@
bildiri
bilimsel
dalında
düz@@
eleştiril@@
feder@@
göç@@
imini
insanlık
kendisinin
onar@@
potansiy@@
recek
sayıdaki
yapı
yapılandır@@
zanlıları
çılar
ğun@@
ımında
şehir@@
şiddetle
Bölgesel
Haz@@
Pekin
Stojanovska
Yardım
barışı
bilgiler
blok
cular
ekip@@
emez
gönüllü
haftalık
iti
itiraf
iyileşme
işbirliğiyle
karışık
kaynaklanan
kuruluşlarının
mama
oluşturduğu
projesinin
sen
ttiği
uyoruz
yoktur
zorla
üsü
üyelerinden
ıyor@@
Ek@@
Hristofiyas
Konjikusiç
Mus@@
Nataşa
Peter
Sh@@
Xinhua
başkanları
faydalan@@
geti@@
görevinden
haklı
hep@@
hi
istekli
istikrar@@
kitap@@
krizden
kış
listesinde
meseleleri
meslektaş@@
sonuçlarını
süresinin
turu
ular
yenilen@@
yeten@@
zanlıların
zirve
çıkarlarını
özgürlük@@
üle@@
üzer@@
üç@@
ığına
Banka
Ramazan
SA@@
Tas@@
Te@@
Turkish
Ulaştırma
ailesinin
ayan
bileceğini
bom@@
bölgesine
değişen
ekonomist
geçiyor
hayır
kaldığı
kayak
kovuştur@@
lilik@@
restor@@
risk
sayılı
sorunlarını
sü
tesine
tif
tiyle
topraklarında
yıllarca
zan@@
öncül@@
örgütünün
öv@@
üyelerine
şans@@
63
67
Agim
Inter@@
Nor@@
Rapor@@
Rus@@
Taki
akıl@@
alınmış
azaltmak
başkentinde
cen@@
dahilinde
davaları
doğan
eceğiz
eur@@
girmesi
ins@@
izleyen
kilise
kurul
nj@@
pazarına
piyasa
savcılık
sorum@@
tele@@
tıp
uygulaması
yararlı
yürüttüğü
çısı
ülkesinden
İngilizce
ırklı
şüphe@@
Dem@@
HIV
He@@
Kurul@@
Türkler
adığı
amacının
aray@@
arş@@
aydır
doktor
elim@@
gereği
görevde
günler
katılanların
nüfusu
og@@
ordusu
payı
stratejisi
tanesi
tro@@
yönel@@
çağırdılar
çifte
Bağımsız
Bozidar
Labus
Lübnan
UPI
Uy@@
alıyorlar
aram@@
belgenin
cak
daydı
devredil@@
değerinde
dünyadaki
etkileri
eşlik
incelen@@
komisyonu
kırıklığına
münasebetiyle
ori
saklan@@
sayımı
sıradan
tes
tiren
ulos
veto
yasal@@
yoluna
yürütül@@
şüphe
AKI
Arnavut@@
Barbutov
Brammertz
Gen@@
Her
Mahkeme
Norveç
Profesör
Richard
Ros@@
adamları
alanlar
ap
arkeologlar
ban
düler
ena
ertesi
gerekçesiyle
harcan@@
istan
işleyen
koordine
kurmayı
layık
olmalı
platform@@
polis@@
rakibi
taraftan
test@@
teşkilatı
usunun
vurgul@@
yası
yatırımcıların
zorluk@@
örnek@@
ülkesine
ümü
İlgili
Kra@@
Marko
Sa@@
akla
artışı
dakika
değin
filmin
ilmiş
ino
irse
ister
landığını
medyanın
moon
nci
odak@@
planda
planladığı
projede
standartların
tatil@@
toplantısına
video
yarar@@
çalıştığını
ılabilecek
ırk@@
ısındaki
ısından
Bas@@
Ivan
Med@@
Met@@
Nimetz
başladığı
cılık
def@@
düzey@@
düzgün
elerinden
emri
farklılık@@
film@@
girecek
gözlemc@@
güçlendirilmesi
hap@@
hüküm
itenin
kararları
kardeş@@
maliyeti
notunu
olayın
oynam@@
partilerinin
sizin
sokak
sürüldü
taşımacılık
telekom
tıkları
uçak
yaralandı
yatırımları
çalışacak
çekiş@@
çocukları
Can@@
Dra@@
Jankoviç
Ljub@@
Meta
Mic@@
Paktı
alıp
ayrınt@@
açabilir
deme@@
devlete
elerinde
heyetinin
iade@@
kendini
kuvvetleri
leştiril@@
listesinin
sahipleri
saldırılar
sağlanan
sergisi
standartlara
taban@@
yasak
yola
zamandan
zamanın
çağ@@
çözüle@@
öncelikli
İttifaka
İvica
54
Bla@@
Bojana
Del@@
Hareket
Kam@@
Kö@@
Lis@@
Sivil
Yıl@@
acağım
anlaşmaları
araz@@
atan
avro@@
ayakta
azaltma
bağımsızlığının
birliğinin
bölgelerinde
derecelendirme
devam@@
değildi
döndü
dığ@@
gidil@@
gâ@@
itsa
kararlılığını
kilometrelik
misyonun
na@@
ora
ortam@@
ros
ruhsat@@
sanayii
sunan
suretiyle
turizmi
uyordu
yatırımcı
yollardan
önemlisi
İvanoviç
00
1.000
Adrian
Belene
Boyko
Dimitrova
Haberleşme
Hindistan
Jov@@
Mis@@
Mur@@
Süleyman
Var@@
altyap@@
amaması
ard
başlatıldı
belirsiz@@
beyaz
bine
birlik@@
bomb@@
dünyasında
eder@@
girişimin
grubunun
ilişkilerde
iyileştirmek
kalabalık
kalan@@
kanun@@
mahkemeyle
misyonunun
oldular
sivil@@
uzlaşmaya
yapım
çatışma
ı-
ılığına
şansını
AN@@
Burgaz
Fakültesi
Silayciç
Toplum
aylar
bun@@
ceği
desteğin
dönem@@
eceğ@@
eyaletteki
geliştirmek
gergin@@
geçerek
gidecek
gidiş@@
haklarına
han
kademeli
koalisyonunun
kullandı
laştırma
luğunu
meclis@@
medi@@
mektir
ner
politikasını
pratik
sinema
sos@@
toplantıdan
toplumlar
vaat@@
yaratmak
yayı
yazılı
yemek
çalışmalar@@
çıkarma
Düz@@
Hıristiyan
Kamu
Müz@@
alınmasını
benzeri
bulunmadığını
harit@@
hükümetle
iste
ithalat
iya
kaldırma
kurumlara
küç@@
kız
lek@@
lığıyla
milliyet@@
olanak@@
otoyol
parlamentoya
politikasının
projesine
rakamın
sakin@@
seçenek
tedavi
tutukladı
tüketi@@
uzlaş@@
vergisi
yaptılar
yarısı
yazılım
yoksun
yolcu
yüksek@@
zirvesi
çekmek
İrlanda
ınlar
şarkı
66
Kre@@
Lukiç
Nic@@
anayasanın
açığını
birleşik
bütçesi
cilik
destekli
dığımız
ekonomiyi
eğit@@
geleni
görüşlerini
havaalan@@
hiz@@
ilgisi
imzalanması
ku@@
lem@@
olabileceği
osuna
osunun
sever@@
sine@@
sızlık
tanık@@
the
vizyon@@
yasasını
İnsanlar
ınca
şüphel@@
49
Andre@@
Bos@@
Denizi
Gj@@
Kov@@
Ru@@
Silahlı
baraj@@
başkanının
doğalgaz@@
ed
eğini
fikrini
getiri@@
güneyindeki
hakkını
hükümetler
iği
kapsam@@
karşılay@@
komisyonun
kullanıyor
lecek
müzis@@
onaylanan
otel
personeli
sergilen@@
suçların
sığınma
tartışmaya
taşıdığını
yangın@@
yarısında
zan
Ülk@@
çözümün
öncelikleri
önerisi
örneği
ülkeyle
İk@@
İli@@
0.000
Com@@
Danimarka
Ener@@
Kostov
Patri@@
Verheugen
X@@
abiliyor
amaçlıyor
art
askerlerinin
atıfta
ba@@
başlamasından
bet@@
boy@@
cihaz@@
daimi
davaların
desteklenmesi
diğinden
egemen
füze
gemi
getirerek
gri@@
göl@@
istiyorum
işlev@@
kışkırt@@
milletvekillerine
sunuldu
vatandaşlara
web
yaklaşan
yeme@@
yetk@@
çalışıyorlar
ılığın
56
57
Daily
David
Ku@@
Radio
ailesi
aracı
artırdı
azalma
bazılarının
ceviç
davayı
deneti@@
dönemin
düşman@@
ekleri
evet
gec@@
gurur
ilişki
imzalam@@
indi@@
işleme
kalabal@@
kaldığını
karşılayan
mamakla
milit@@
pekiş@@
pen@@
raporunu
ret
sorunla
sürpriz
tez@@
tuttur@@
tutum
vaz@@
yoğunlaş@@
zengin@@
çıkarlarına
öz
Şeffaflık
Şimşek
şarkıcı
şeffaf
Alek@@
Ayhan
Azerbaycan
Frattini
Kemal
Oyun@@
W
Yol@@
af
any@@
belirlenmiş
biliyor
doğur@@
endişelerini
erecek
görevlerini
haftalarda
iddiana@@
kurucu
kurucusu
köken@@
kı
ladılar
nüfuz@@
olar@@
olmas@@
polisinin
puanla
receği
rejim@@
sek
sh@@
st
tarafının
tarihe
tutmak
varan
vardır
yarım
yasalara
yöne@@
yükümlül@@
öğ@@
İttifakı
ılıkla
39
Angela
Büyükelçi
Forumu
Soren
arasına
attığı
ayak@@
bakanlığına
bağlan@@
belgeyi
beş@@
biriydi
biç
blog@@
bölümünü
devi
düzinelerce
eği
federal
gelişimi
geçersiz
haft@@
ham
harici
ilç@@
kurumlarını
liğindeki
nitelendiren
parçalan@@
reddedil@@
sigorta
sunulacak
talebinde
yanl@@
çileri
çıkarmak
öğrencilerin
ısıyla
12@@
52
CEFTA
FI@@
Marija
Zi@@
adıyla
alam@@
açıklamasına
başladığını
beklendiği
bölgesinin
dağıtım
erin
ette
eyal@@
fail@@
fonlar
gazetecilerin
geçirmek
güneş
inanıyorlar
kanalı
kayıp@@
komş@@
koordin@@
kuzeyde
meclisi
melerinin
ner@@
oturum
politikaları
sadık
suçun
süz
tehdidi
tel@@
turistler
yolcul@@
çıkacak
öncelikle
İm@@
ılığını
ıt
1989
El
GERB
Jadranka
Kathimerini
Prizren
Tiyatrosu
U
alandaki
alev@@
amadığı
arda
azal@@
basınında
berg
bireysel
boğ@@
duruldu
eleştirilere
etler
fiyatı
fiziksel
iyat@@
işç@@
kararda
katılımını
ker@@
kısıtla@@
ley
memurları
mücadelenin
olmasa
ram@@
res
sahası
sektörünü
sonuc@@
sorumluluğu
soruna
tenis
toplanan
yapılanma
çağıran
çök@@
ürün
İktidar
ıca
ıza
şim
Anton@@
Dejan
Gra@@
KLA
adımları
arabuluculuk
başsavcı
buraya
deney@@
enlere
gelenek@@
görülmemiş
hayat
hayatta
irsiniz
isiç
işareti
işti
konferansı
kurulmasına
kurumun
kısm@@
larımızı
lerimizi
malların
okula
oyunu
polise
resi@@
saatlik
sch@@
sektörün
seviyesine
str@@
sürmesi
tartışmalara
tiri@@
uygulamak
yaşad@@
ziç
çilik
çıkardılar
üyelerini
ılmıştı
Balkan@@
Dora
Esad
Geç@@
Lizbon
Nobel
Rohan
Trans@@
Tuzla
almıştı
aşağı
bazen
biz@@
bulunuldu
cazip
eskiden
etkileyen
eş
hel@@
iliş@@
işlenmiş
komitesi
konması
liye
meşru
olabilecek
qu@@
sorumluluğ@@
taş
tti@@
yazık
Çerçeve
Ödül@@
ışığında
şampiyonu
şarap
şartların
3.@@
Dağı
Independent
Kri@@
Mladen
Teşkilatı
adamı
akrab@@
anlığı
artırmaya
asi
bankalar
bankanın
bombalı
demokras@@
dukları
duklarını
düşünce
genişlet@@
hepimiz
hızlandırma
kazanç
konusunu
kurumu
lesi
lüğünü
piskop@@
rakip
raporuna
sürdürülen
tamamı
tutan
yasada
yayınla@@
yükselen
çoğunluğunun
çıkarları
çıkarılan
0.
1244
Dnevnik.bg
Ju@@
Press
Rek@@
Tom@@
ayrılan
dikkatli
fizibilite
gösterildi
gündeminde
gününe
hac@@
hız
if
ihtiyacımız
imz@@
imzaladığı
kendine
kolay@@
leyecek
mektup
model@@
mücadeles@@
nakil
neh@@
nihayet
paket@@
riski
savundu
suçlamalar
taraftar@@
tavr@@
ulu
vurgula@@
yaşanıyor
yerlerinden
yıldızı
Çalış@@
çıkmaza
üğü
İvanov
95
Go@@
Kas@@
Kosteliç
Vas@@
açılacak
aşam@@
bağımsız@@
deprem
edeceğiz
gemil@@
haftaki
harcamaları
hükümetinden
isimli
istler
iyse
kararlar
lıkların
masa
ot
otel@@
oto@@
peki
programları
soğ@@
zamanla
zulüm@@
önce@@
öngörüyor
ılığa
Gr@@
Mat@@
Pi@@
RT@@
anlaşmayla
belges@@
birer
bölümünde
cinsel
desteklenen
devri@@
duyduğunu
dönen
eksiksiz
etkiley@@
eylemleri
güveni
ittifak@@
işlerini
kür@@
lak
lin
makin@@
müdür
nu
olduk@@
opoulos
profesörü
projelerin
reddediyor
sizliği
statüsünün
turda
yo
çabaların
öncesine
ülkelerdeki
ğinden
şub@@
1980
Ali@@
DPS
Direktörü
Katolik
PIC
Reform@@
Sim@@
anketler
aret@@
ate
bahar
bini
bri@@
duğ@@
etle
gerçekleştirildi
geçirdiği
görüyorlar
gı@@
hal
hü@@
i-
inanılan
isyan@@
kapasitesini
karşıt@@
kre@@
kural@@
kurbanların
lerimiz
luğun
merkezinin
meyle
mücadeleyi
müzakerelerinde
onayı
programının
protestolar
santral
sonuçlandı
suça
tabi
tay@@
tütün
zanlılarını
çete@@
İslami
İvan@@
ANA
Dimitri@@
Dr@@
Holkeri
II
Konferansı
SNSD
Van@@
amaç
açıklandı
bakanlığın
başkanlığına
bina
bulg@@
diplomatlar
diğim
duyuyor
düzenleyen
etrafında
ettir@@
fabrikası
gerekç@@
getirilen
gözlemci
haberde
hükümetten
işadamı
kapsamındaki
kilo
korumaya
kıyısındaki
liğiyle
mahkum@@
meliyiz
miz
muyor
mühendis@@
nitelik@@
oylamada
pak@@
rev@@
sanatçı@@
servis@@
seçimlerinden
takımının
teklifi
tuğunu
verirken
zih@@
ımda
72
BSP
Daha
Dim@@
Estonya
KSF
Men@@
Rasim
SDA
Schwarz
aklama
ayar@@
azaltılması
açtığını
dam@@
elerle
fiyatlar
girebil@@
girmek
gitmek
gru@@
hasta
ilerinde
inanıyoruz
kabul@@
kalacağını
kasabası
kimi
lerdir
mam@@
oluşturmak
organiz@@
pazarı
programda
rebilir
sabah
sam@@
sporcu
teşekküllü
uzaklaştır@@
yükseli@@
özgürlüğünü
ülkem@@
İr@@
ıcısı
ılacağı
ılarıyla
şirketlerinin
64
78
Ivica
Kuk@@
Papadopulos
Terziç
Uygulama
açmayı
başladılar
benimse@@
büyümeyi
cumhurbaşkanlığının
dahi
derken
değişik@@
diyaloğu
durumlarda
dö@@
edecektir
esk@@
fiili
finansmanı
gel
görü@@
ima
inoviç
kategorisinde
kim
komite
kullanmak
layıcı
makamların
merkeziyet
meseleyi
meyiz
mleri
oda
operatör@@
programını
sunmak
vermişti
üs
2014
Ah@@
Euronews
Group
Gö@@
Güç@@
Iraklı
Partisinin
Racan
Son
Traykovski
askerlerin
aylarında
bağlayan
bağıml@@
benzin
bilim@@
blok@@
devletinin
değerli
dikkat@@
edeki
etleri
fabri@@
gerçekleştirilecek
güçlük@@
inanılıyor
intihar
işlem
karşıl@@
koordinatörü
protest@@
santralinin
suçlarla
suçlarıyla
tat@@
uların
uygulanacak
yıldız@@
şekil@@
3,5
6.@@
Avrup@@
Ermenistan
Foniki
Mes@@
SRS
baltal@@
bağlamda
belirtil@@
bildirildiğine
bölgeden
derin@@
değerlendirmek
elerden
emek@@
etkinliğin
fonları
gelirleri
gh@@
görüyoruz
gösteric@@
gözardı
hep
imzalay@@
irdi
istifasını
kapsayacak
kin@@
konan
lah@@
larca
lardır
liderin
line
masaya
mde
per
sahipler
töreni
yecek
yenlerin
yiz
yolun
çıkma
çıktığı
ð@@
üyordu
ıklarını
ımının
58
Ana
Birlikle
Bra@@
Bölge
Journal
Tarım
Temsilc@@
Van
Yolsuzlukla
Z
aran@@
artmasına
atlar
atması
bağlantısı
başbakanlık
burg
denetimi
değeri
değiller
gerginlik
görevleri
gücüne
indiri@@
katılabil@@
kaydettiğini
lidir
liklerin
lüğ@@
mültecilerin
olayda
protokol@@
resi
savcıları
sitesinde
siyasileri
soykır@@
sın@@
tanınması
tedarik@@
tersine
tük@@
ula
yargıç@@
yerleştiril@@
çabalarında
çekme
çıkmaz@@
öldürülmesi
öneriyi
ımdan
ısrar@@
30@@
900
Ege
Kad@@
Ken@@
Mad@@
Novak
Papa
Predrag
Welle
anov
aşağ@@
başlamasını
başlattığı
başvuru
dadır
denk
eğil@@
fabrik@@
io
istasyon@@
kazand@@
kazanması
kredisi
lüks
malarıyla
memnun@@
merkezindeki
mücadeleye
müyor
olmadığına
orman
otori@@
potansiyeli
pre@@
sakin
siyasete
sıcak@@
tarihlerinde
temiz
toplumların
tümü
yabanc@@
yarattığı
yatırımc@@
öngörülen
ılığının
Araştırmalar
Ashton
Ergenekon
Financial
MSK
Ramazanoviç
Sancak
Simeon
TA
Yahudi
alanlarındaki
atın
basit
bık@@
cumhurbaşkan@@
dijital
durumunun
düzelt@@
est@@
ga@@
gelip
genç@@
görüştüler
hedefinin
ilan@@
ileş@@
imaj@@
isa
istleri
kaldırmak
kapasitesi
kapasitesine
kayg@@
komplek@@
kov@@
resim
sandalye@@
seviyesi
tahsis
tle
umuz@@
yaptırım@@
yasasının
çocuklara
üyeliğe
350
68
BDP
Europe
Füle
Ljubljana
NIS
Sel@@
Simiç
Svetla
Tem@@
Vlora
Wisner
ajansının
başarıyla
başlamasına
bekliyorlar
binası
büyükelçisi
davranış@@
devle@@
elverişli
ettiğ@@
fonların
görüşü
güney@@
harika
hen@@
imkansız
kapısı
katılımcıların
kesimindeki
konudaki
konus@@
kuralları
lığ@@
sahne@@
sponsor@@
stand
temsilcilerinin
turistlerin
uzanan
uçur@@
yans@@
yazısında
ıcılar
ımcı
ımları
şiddet@@
5.@@
8.
Arnavutça
Bilgi
Eylem
Haciç
Hava
James
Pamuk
Rücker
Serbest
Spiriç
Svetozar
UNICEF
Yaş@@
Yunanlılar
alındığı
ayrılmış
döneme
edebiyat
ekonomisini
etmekten
gecesi
gelişim@@
girişimleri
hedeflerini
iller
işletme
kova
kullandığı
kullanmaya
kâr@@
lak@@
lerce
liliğini
mamak
mar
meden@@
modernize
olmaz
parayı
reformlarını
reformunun
ruh@@
siyasetçiler
suikast
tahmini
tarihine
tis@@
yönetimin
ödemek
ölümcül
üldü
ımc@@
ısın@@
şeyden
1,2
Alfred
Boc
Din@@
Gü@@
Hollandalı
Komsiç
Min@@
Sekerinska
aktör
arıyor
açacağını
açmak
belirlenmesi
bildiri@@
cumhurbaşkanları
ders@@
emin@@
evlerine
firmaları
genellikle
gerektir@@
hisse
ihtiyatlı
ilişkilere
irade
katılımının
kaynaklarını
key@@
krizle
kırmızı
las
lis
makamlar
mec@@
oku@@
oları
orman@@
patlak
patlama
planlandığı
sanatçılar
savcıların
sağlamayı
sonundan
sonuçların
tarz@@
taslak
tehlike
tutarında
tıpkı
varlığı
yansı@@
yargıç
çalışırken
çıkmak
ödülünün
örgütler
öğrencisi
şans
şiddete
Bogdanoviç
Brezilya
Bugün
Gençlik
Maria
Tes@@
Yen@@
aff@@
anlaşmaların
anne
bozul@@
bulmaya
donan@@
düzeyindeki
eğer
farkla
firmanın
gelmesini
gerisinde
geriye
görüle@@
güçlerin
hazırlık@@
ikisinin
imajını
işlen@@
kalmayıp
karakter@@
kaybeden
kaynak@@
krediyi
land
nitelikte
nüfusa
okuy@@
ore
seçimi
sürdürmek
sürüyorlar
telefon@@
tiriyor
tuğu
tüketic@@
tığına
yöneticisi
yük
çalışıyoruz
çelik
özerk@@
İkili
ışını
4.
61
Biljana
Burns
Ex@@
Ham@@
Hol@@
Hristofyas
Jelena
Mas@@
Osman@@
Savc@@
Selimay
Veli@@
Yapılanma
alındığını
artıracak
atıyor
ayının
başlamak
boyu
cas@@
cep@@
devamı
duydukları
elini
finansal
gin@@
gönderme
güçlendirmek
hayvan@@
ilerlet@@
inizi
jana
jin@@
kalmak
kalmaya
katılımc@@
kend@@
konferansında
kurulmuş
kuvvetlerinin
küçül@@
normale
pet@@
salt
sağladığını
takımın
tarihini
taşım@@
test
tic@@
topladı
törenle
uluslu
uç
veriler
yatırımcılara
yeceğini
yurtdışına
yurtdışındaki
çevril@@
örü
öğretmen
ülkeleriyle
1994
4,5
Erlis
Kermabon
Kovaceviç
Kral@@
Müsteşarı
ND
almakla
alıyordu
başlatmak
blo@@
caz
duvar@@
dünyaya
düzeni
düzenlenmesi
etmesinden
ger
getirebil@@
görüşlü
gösterilen
güvenini
hil@@
iktidarda
ismi
istif@@
işver@@
karışık@@
kesintileri
koalisyonun
konumunu
kral@@
larımızın
mediklerini
musunuz
ofisi
olacak@@
ole
perakende
rekabet@@
sunacak
sürdürülmesi
sıfır
sıkış@@
tartışmak
uf@@
unsur
yaparken
yaratıyor
yatırımın
yaşlı
yerlerde
yumuş@@
yıldönümünü
çöküş@@
önceliği
öneme
Bitola
Kır@@
Mol@@
Stratejik
aban@@
adal@@
analisti
atöl@@
ağına
bulunuyorlar
cari
dalar
doğumlu
ekonomiye
eta
euroya
gelin@@
günde@@
hükümetleri
ii
itibariyle
izden
katılımın
kavram@@
kazanmak
kesimi
komşuluk
konuya
koyduğu
kullanılması
mahkemede
mevkidaş@@
müzakereler@@
olmalıdır
rakamlar
sarf@@
savunuyorlar
süt
takdir
troy@@
uzun@@
yapılıyor
yatırımların
yetecek
ziyade
ılacak@@
7.@@
Gar@@
Kaz@@
Kosumi
MPA
Mahke@@
Mik@@
Pa@@
Steiner
adaylar
adayları
altıncı
arkeoloji
atmaya
atör
ağın
beraat
bildiriyor
bulunma
bölümünün
cel@@
edeceğine
ekibinin
elik
engellemek
görüy@@
hedefleyen
hoş
hoşgörü
istatistik
karıştır@@
kok@@
kontrolünü
mahkemesinde
mas
menler
muadili
mültec@@
müze
olaylarının
orlar
red@@
sayf@@
sayısız
suçlarından
sürecindeki
tahsil@@
turn@@
ulacağını
uyarı
varlık
yardıma
yaşamını
yoğun@@
zer@@
zirveye
Çinli
öldü
şair
şeffaflık
şimdilerde
Bürosu
Dimitrov
Elek@@
Fena
Müslümanlar
Robertson
Rupel
aat@@
almaları
atık
bağımsızlığına
başbakan@@
boş
bulunul@@
day
defalarca
dolaylı
ebeveyn@@
etiyle
evlat
ezici
final
gereksin@@
gerektiren
geçtiğini
görme
hukuk@@
huzur@@
hükümetlerin
işsiz@@
kolayca
konferans@@
kuruluşunun
maaşları
olog
radyo
statüsüne
sul@@
sübvansiyon@@
tif@@
tutumu
törene
unsuru
uyu
yapmaları
yenilenebilir
yenilik@@
çekildi
özelleştirilmesi
ılmasından
ımızda
4.@@
Askeri
Kore
Meclis@@
Post
Sab@@
Vetevendosje
Yun@@
adımı
başlatmaya
belgeler
buluyor
buçuk
decek
derg@@
devre@@
dey@@
engeller
etkilenen
eyle
fak@@
fasl@@
firmaların
gözlem
güçlükler
hata
ihlali
ileriyle
ilişkilerinde
inandığını
ire
işley@@
katına
kül@@
mobil
nitelendirdiği
park@@
performansı
programında
rejim
safhas@@
sahi@@
sağlayarak
seçilmiş
sorunlardan
sorunlu
tatmin
taşıyacak
terek
ters
tüsü
vatan@@
vurgulayan
yaptır@@
yapıldığı
yaşadı
yenerek
Çocuk
çeliş@@
ötesinde
üz
130
AIDS
Bütün
Dok@@
Müdürlüğü
Oper@@
Ortak
Pat@@
Rasmussen
SA
Sezer
batısındaki
bileceği
dans
del@@
devraldı
diplom@@
edilmişti
elinin
etkisini
geçmişi
güçlerini
halkını
hapishan@@
ilerlemesi
ilgil@@
ilişkilerinin
imleri
kararlaştır@@
meyeceğ@@
milyondan
operasyonun
oranına
oranını
projelerine
reddeden
sekreteri
tablo
teor@@
uçuş@@
yaratma
yazdı
yüzyıl
zamanının
zirvesine
ölçekli
İç@@
ızda
Bunun
Christian
Dar@@
Girişimi
Halk@@
Planı
Rom@@
Tiyatro
adılar
akademis@@
alışver@@
bedel@@
belirlemek
bulunmuyor
düşünül@@
etinde
etinin
eğitimli
fabrika
geler@@
gelişmekte
gelmesine
gerçeğ@@
gesi
güvenilir@@
hızlandırmaya
iklim
katılımıyla
kaybettiği
kazanma
koruması
koruyor
leşmesi
liderlerle
lıktan
masıdır
olgun@@
oyuncusu
parlamentosunun
pas@@
sahiptir
sahn@@
savcısı
siyasetçi
soruşturmanın
söylemek
sıral@@
takv@@
ulara
vermesini
Çevre
çalışanların
çe@@
çıkarak
önlem@@
ğ
ıyız
şe@@
69
Ahmeti
Djukanoviç
Et@@
Japon
Söz@@
aileleri
artırmayı
açığının
bariz
coğrafi
düşünüyoruz
eklerini
enko
etkin@@
hakk@@
hazırlanması
hükümetiyle
hızlandırmak
iflas
işadam@@
katledil@@
kazanarak
klin@@
leyici
medikleri
muhalif
münferit
müş@@
ok
olasılığının
oyuncular
satışı
sayfalık
standart@@
ster@@
topla@@
tren
uygulanmasında
vatandaşın
veri
zarara
çoğun@@
İşlet@@
ılıklarını
2.
Alt@@
Boskovski
Euro@@
Gaşi
Kurtuluş
Mediafax
Mircea
Prag
Ram@@
Res@@
Street
Tito
Yan@@
ambar@@
anlaşmasına
anlaşmazlıklar
atını
babası
bankaların
beklendiğini
bilinc@@
biyo@@
cesaret@@
edebilir
eller
emeyeceğini
entegrasyon@@
etmemesi
ettiklerini
fonu
geçirilen
grev
görevlileri
gın@@
hesap
ina@@
izm
kadar@@
kapılarını
karşılaştır@@
ların@@
lerse
malları
meclisteki
medeki
medyada
mir@@
olurdu
onur@@
sanız
savaştan
sidir
siniz
sürdürül@@
sının
taşıy@@
temsilcileriyle
tercih@@
teröre
topluluk@@
turistik
tutuklanan
uygu@@
yerleştir@@
yolsuzluğu
zarar@@
ziyaretçi
çekilmesi
özür
İmparatorluğu
ıl
ılmaz
ımıyla
şüphelenilen
110
59
Ağı
Cenevre
Fin@@
Konse@@
Koridor
La@@
Litvanya
Romanlar
Rompres
Sovyet
X
Yerel
askerlik
bakanın
başvurusunu
bilecek
bulunmuştu
büy@@
dek@@
demokrasinin
depre@@
destekç@@
diyalog@@
doktorlar
duyul@@
faaliyetlerinin
fonlarının
görebil@@
günün
haberinde
hakaret
hazırlanmış
ihtilafının
ikil@@
iyileştiril@@
kaynaklardan
kaynaklarının
ks
kullanılıyor
kuruluşun
kıt@@
likte
makal@@
medyaya
mesajı
meydan
mişlerdi
model
rahatsız
savunan
semt@@
sene
seyre@@
tarafında
tepkiler
tesinden
tetik@@
uş
yakıt
Ül@@
çağırıyor
ümüz
ılan@@
ıysa
5.
83
CEO
Emil
Eri@@
INA
Oliver
analiz@@
anlamı
anlatıyor
aralarındaki
ardı
avr@@
basketbol
bayan
bayrağı
bağlayıcı
bulaş@@
bölgeleri
diyaloğun
eksik
endişelen@@
erteleme
fasıl@@
fre@@
güc@@
güzel@@
herkese
ilerlemesini
isimler
jisi
kitab@@
kuzeyinde
meni
merkezine
normal@@
not
rad@@
rı
savunuc@@
senar@@
sezon@@
sim
sorumluluk@@
suçlular@@
sürdürdüğü
sıraya
tazele@@
unca
yapmakla
yarışı
ziyaretini
ziyaretinin
çabayı
öldürüldüğü
ücre@@
İcra
İdari
ılım@@
ındaydı
ıştı
Şampiyon@@
şeker
Condoleezza
Demokr@@
Kopenhag
Lam@@
Q@@
Traj@@
aklık
alama@@
anlı
atının
avukatı
aşa
bayrak@@
buldular
deyimiyle
diğinin
dolar@@
dönüşü
eylemi
festival@@
geleceğine
gelişim
gelmek
geçmesine
grad
görüşmelerinin
gösterecek
gösterileri
gücün
hedefle@@
herşeyi
ifadesinin
ilerliyor
istiyorsa
kanıtı
kiler@@
kup@@
makul
memekle
mimar@@
okulu
politikalar
rim@@
salon@@
sem@@
seçilmesi
sigort@@
size
sonuçlanan
suçlardan
söylerken
sınıf
tamamlamak
ticaretin
topraklarının
tre@@
yürütme
çıktığını
üçü
İdaresi
İzleme
ığa
140
Andy
Ara@@
Büy@@
Dün@@
Frank
Komisyon@@
Makedonlar
Ord@@
Parlamenterler
Sanayi
Vit@@
Y
akaryakıt
analiz
anının
arasından
ayrıldı
bağlayacak
başarısı
başlayacağını
beklemek
bölünme
dakik@@
daş@@
desteğine
devletler
değiştirmek
durumdalar
döndür@@
düşürdü
eklen@@
ellerinde
enerjisi
görüldüğü
gösterisi
götü@@
idam
iddialı
ka@@
kapsıyor
kapı
katılanlar
kazandılar
korkul@@
kınadı
leştirme
listesine
lıklara
notu
olmuştur
sağlandı
ses
seyirc@@
siyon
sonuca
standartlarının
sub@@
sürdürmesi
temas
tiyat@@
tutulan
tüketici
ularını
ulustan
uyguladığı
uyruk@@
vurguladılar
yaklaşmakta
yansıtıyor
yapılmasına
yarattı
yayınladıkları
yaşandığı
zamana
zamanlı
Çalışma
çalışanlarının
çevr@@
çıkarına
ülecek
ülk@@
ümit
şi@@
1,6
Anlaşmasını
Aziz
Cokoviç
Ker@@
Mem@@
Nine
Prodi
anya
ateşli
atılması
barındır@@
bağlantıları
bilgisayar@@
birliğine
bomba
boykot@@
bö@@
büyümesi
car@@
demek
desteklediği
ebilmesi
edilmesinin
eleriyle
gol@@
güneydoğu
gününde
hamle@@
imtiyaz@@
istikrarsız@@
kapatma
kaybe@@
kayd@@
konsey@@
konsolos@@
kot@@
liyorlar
manastır@@
masraf@@
mühimmat
nokta
num@@
olayla
perspektif@@
planlan@@
pol
sayede
sunum@@
söylemişti
tör
yasalarını
yeraltı
yolunun
yürütüyor
zincir@@
çoğunluğunu
çoğunu
çözümler
î
ölü
ılmasında
ığımız
AB@@
Bamir
Bin@@
Büyük@@
Gümrük
Hukuk
J
Lazarova
Strazburg
US
adıkları
amayan
arayış@@
arına
bank
başarısızlıkla
başlamış
belediyeler
bölünmüş@@
dayanışma
döneminden
düşünc@@
ekib@@
ekonomisine
faaliyetlerin
gölge
hazırlay@@
icra
ilerletmek
ilmesini
inşasına
istiyor@@
kali@@
kapasiteye
kl@@
liste
listede
mamasına
mamasını
memur
mirası
nedenlerden
oluşturduğunu
pe
rejimini
rock
sergile@@
sınav@@
tahliye
temsilcilerin
tesisi
tip@@
ttiğini
ulaşım
ura
usta
uygulamasının
uzmanların
yapılarına
yardımın
yatırımcıları
yönetimini
çilere
çiğne@@
çılık
üyeliğin
şe
şeyleri
Anayas@@
Ari@@
BTA
Bakanlığ@@
Brajshori
Daianu
Dink
Eroğlu
Kriz
Lo@@
PA
SDS
Siyas@@
adayların
akın
alıcı
anmış
belediyesi
bilmesi
bulunmasına
demir@@
değerlendirdi
değişiyor
dis
edi
etkileyici
firmalar
görüşünü
hedefler
iceviç
ihtiyaçları
ilki
ilmesine
kamuoyunda
kök@@
lam
leştirilmesi
lise
lıklarının
milletvekilinin
milyonluk
noktasına
onlarca
ortalam@@
ortamda
partilere
politikalarını
puanı
recektir
rin
sans@@
seçmen@@
sın
taz@@
tedav@@
tekstil
temin@@
tiğine
val@@
yandaş@@
zorlaştır@@
çocuğun
çıkış
övgü
İstihbarat
Cumhuriyet@@
Focus
Havaalanı
Hersekli
Ivan@@
Kitap
Mali
Radovanoviç
SPS
St.
Tal@@
Yılmaz
alet
arka
açıkladılar
bebek
bekliyorum
binasının
bizzat
cusu
değ@@
diğeri
durumla
dörtte
düzenleniyor
edileceğini
ekle@@
eleme
geler
gelişmeleri
gerekiyordu
gitmesi
gördüğ@@
görmüş
gösteriler
hiçbiri
hâ@@
imizde
istatistik@@
izleyic@@
işine
karşılama
katılmasını
kendileri
kentte
kitabı
konuk@@
kred@@
kullanım
kış@@
lıkta
makamlarını
opulos
receğiz
referandumda
referandumu
seyirci
sonuçlarına
yanın
yemek@@
yerleri
yurt@@
zaferi
İsrailli
şiddetin
76
BiH
Dağ@@
Değ@@
Diyarbakır
Don@@
EIB
Edi
Gazeteciler
MW
Sek@@
Seselj
To@@
adaylığı
akla@@
ansi@@
açılmasını
bakıldığında
bakım
başvuruda
bilgiye
binanın
davalar
davasında
desi
deydi
dinle@@
egemen@@
faaliyetler
fiyatlarının
gereksiz
geçmek
gun
gönül@@
hedeflere
istikrarını
işgal
kadınlara
kapsa@@
karşılaştığı
katılarak
kaçınılmaz
konumda
liberal
liklere
lim@@
lukla
meselenin
metreküp
muh@@
muştur
organizasyon
otomobil@@
pazarının
planında
projesini
rakamlara
ran
rejimin
saldırının
sanmıyorum
sistemleri
stri@@
suçlamada
tahvil@@
taşı
tuğ@@
umuduyla
varsa
vil@@
yapılan@@
yapısı
yararına
yirmi
yüzyıldan
çöker@@
ölümüne
üyeler
üyeleriyle
ılabileceğini
ılar@@
şok
82
Basın
Beyaz
Bran@@
Brcko
CoE
Coburg
Dr.
EXIT
Göz@@
Ivanov
Kul@@
Lavrov
PA@@
Romanların
Saxe
Seçim@@
Sk@@
TI
Wall
Yunanlı
a-
alkol
amadığını
anlay@@
arz
asyonuna
balık
cezalar
denetim@@
dernek
dolaşım
endişeler
engelleri
etken@@
etkilerini
etmeyeceğini
evde
faaliyetlerine
fazlasının
gemis@@
gerekirse
güdümlü
hizmetler
iadesi
ihracatı
imal@@
iniç
insanı
istikrarsızlık
izle
kabinenin
katliamı
kaynaklara
komi@@
konferansına
konse@@
lanacak
makamlarına
merkezleri
otoyol@@
potansiyeline
programlar
sap@@
sembol@@
sonr@@
statüsüyle
sürülüyor
trafi@@
ufak
vatandaşlık
yangın
ılmasıyla
ımızdan
ışığına
şüphelen@@
1974
74
Airlines
Araştırmaları
Bekiri
DS@@
Devletleri
Fu@@
Hırvatların
Ili@@
Jur@@
Kongresi
Yatır@@
adlandır@@
amayacak
ano
askerî
atmak
attılar
bulundukları
bulunuyordu
demokrat
deneyim
devreye
duğunda
entegrasyonuna
erine
eylemler
felaket
görünüm
göçmen@@
güreş@@
hayran@@
inşaatı
izasyon
kaliteli
kamuoyunun
kapasite
konunun
köy
lisans@@
mekan@@
melerden
mü
müfettiş@@
nevi
nüfuz
ofis@@
onur
oybirliğiyle
partiye
rekabetçi
reklam
saatler
ser
sorunuyla
standartlar
sürtüş@@
türü
ulaşması
uyandır@@
uygulamasına
varlığının
yapmakta
yasasında
yeti@@
zanlılar
çocuğu
ülkesini
ıklar
ımlar
2015
2020
84
Fatos
Filistin
Gordana
Kaletoviç
Koha
Köpr@@
Simitis
Sof@@
Struga
Sutanovac
Sırpça
Tay@@
ailenin
amayı
artışa
atam@@
ayrımc@@
açması
beklediği
birbirinden
değiştirmeye
duruyor
duruşma
eleştiren
etkinlikler
etmiyor
fikirde
gerekti@@
görüşmenin
hazırladı
hisset@@
hu@@
iddialarını
izlemek
kalp
kararlarını
kişiden
lendirme
mahkemelerin
maç
menfaat@@
meselelerin
ortakları
ortamını
parlak
partiyi
plastik
politik
savunmasız
sağladılar
sembolik
sınız
talebini
tey@@
teşkilatının
tuttu
tırma
uyum@@
vermesine
yapacakları
yarışma
yayla
yetkilinin
yokla@@
yönetmeni
yüzyılın
Özelleştirme
öneriler
Şu
şirketlere
73
81
Coviç
Gabriel
Hac@@
ICG
Müzaker@@
Nikolay
Petroviç
Standard
Telegraph
World
Yasası
amada
amıyor
ayrılması
başlangıc@@
beyan
bürosu
bütçesini
bütçesinin
büyüklükteki
cemaat@@
cezaları
dele@@
denetleme
devralacak
döv@@
düklerini
ensti@@
eriyor
erişimi
faal
gayrı
genelkurmay
gerçeği
gönderilen
görüntü@@
habere
inceleme
istediklerini
iyetin
kadının
kaydeden
kimliği
kişileri
kurduğu
liderlerini
lüler
lüğe
meslektaşı
mışlardı
nitelendirerek
orijinal
oynayan
partiden
port@@
seviyeye
seçmek
sonrasındaki
soğuk
sınırın
tanınıyor
tasarruf@@
toplamda
tüketim
uyorum
yakalanması
yapıyorlar
yaygın@@
ziyaretçiler
çekim@@
çıkmaya
önder@@
önerisinde
özelliğini
özerk
ıcılık
ıç@@
ığının
1,3
Adnan
Ardi
Bedrana
EUobserver
Endek@@
Fiat
Liber@@
May@@
Milos
Parlamento
Petrov
Program@@
Pulaj
Stefanoviç
Stoj@@
Türkleri
anlık@@
anıyor
attığını
açıklamalarda
balık@@
başbakanları
başkanlığında
birey@@
cinsiyet
demir
destekleyecek
duran
dünyas@@
etmesinin
hemfikir
heyk@@
isyan
içeriyor
kamyon@@
kapasitesinin
konuların
koşulların
krediler
kredis@@
kullanımını
lerdi
lılık
mahkemeler
mantıklı
milliyetç@@
odak
olacağ@@
olmalarına
our@@
programa
sanıkların
subay@@
sular
taleplerini
talimat@@
törü
uygun@@
vermekle
yapmasına
yasama
zirv@@
Özgürlük
çalıştır@@
çözmeye
öğrencileri
180
DNA
Deniz
EU
Kir@@
Misyonu
Pen@@
Popoviç
Powell
Sür@@
Tak@@
Tüzüğü
adının
amayacağı
arsa
balıkçılık
belgesel
bitir@@
bizler
bulunurken
bırakıl@@
cin@@
cinay@@
devriye
diaspor@@
dürüst
edebileceğini
eve
geçiş@@
görüşme@@
gösterme
gözaltında
hastane
hissesi
ihtiyaçlarını
ilerleyen
kabinesi
kalmasını
kapatılması
klasik
komutan
komutası
konut@@
koordinasyon
kuvvetler
laşması
mesafe@@
mevdu@@
miktarı
mülk
nica
olmanın
pazarlama
rak
reaktör@@
sorgul@@
sular@@
tal
tasarıyı
unları
uygulay@@
va@@
yapıları
yasalarına
yasağı
yaşama
yaşamı
yedek
yiyecek
yoktu
Çok
çalışanı
çıkmasına
öldürüldü
önlenmesi
öğrencilere
üste
İzmir
..
3.
Aç@@
Bah@@
Blair
Boşnak@@
Doları
Elektrik
Hen@@
JAT
Kabashi
Kut@@
Medvedev
Milli
Orhan
Ramuş
Suç
Türklerin
Vasil@@
abileceğ@@
aileler
aradaki
araştırmaya
arttığını
başvurusunda
bildiril@@
devir@@
eğilimi
for
geldiğinde
gin
gündemde
güvenliğin
haberleri
ilerlemesine
işadamları
işbirliğinde
işbirliğinden
karşı@@
kaynaklı
kişilere
kütüphan@@
lığından
mamaları
melerde
modernizasyonu
olacaklar
ondan
sergiledi
sonuçlarının
sporcul@@
söylemekle
söylenti@@
tanıy@@
tuk@@
tıklarını
ulaştır@@
umudunu
uğradığı
verdik
yakalay@@
yetkililerine
yöndeki
çoğunlukta
önerdiği
ızın
şahıs
25@@
Albert
Beth
Fatih
KESH
Kadın
Muammer
Sava
Yüz@@
adır
asyona
atılacak
başsavc@@
bölgesinden
cak@@
danışman@@
dağ
dendi
des
değerindeki
dost
dönüşüm
engellen@@
ettiğine
eyalete
filmler
genişletil@@
gerçekleşiyor
girme
görünüm@@
hazin@@
hızlandırılması
iliğin
istemiyor
kendi@@
kentine
kimyasal
komün@@
komünizmin
koyuyor
kullanımına
madıkları
mamaya
olmamakla
paketini
planlama
referanduma
referandumun
resim@@
safhasında
sanayi@@
sas
servis
seçme
soktu
soldan
sürdürdüğünü
tasarı
tilmesi
tirip
tığında
uğradı
yakınında
yarar
yazdığı
yenileme
zorundayız
Özgür
çabalara
çalışmaların
çekmeye
örgüte
üme
ığında
6.
Ac@@
Anayasası
Biden
Budapeşte
Caviç
Corceviç
Gör@@
Holding
Karşı
Madrid
Miller
Miroljub
Novosti
Sasa
alanlardaki
alınıyor
amadılar
artarak
aş
belde@@
bilet
birbirlerine
birliğin
caz@@
cisi
cılar
dışına
geleneklerini
gelmiştir
gidi@@
gruba
göstermektedir
hakimler
hatırlat@@
hemşire@@
hissedar@@
hükümette
hır@@
imkan@@
kararlılık
karşılıyor
kaçakçılıkla
keskin
komünizm
konuşlandır@@
leyeceğini
mahal@@
mann
misyonuna
miting@@
noktaya
olaydan
operasyonları
parça
psik@@
raporunun
sayıl@@
sayım
sektörde
sergilediği
sundular
suçlamaların
suçluların
talimatı
tamamını
uda
uya
verip
yendi
zorlan@@
öldürülen
şikayet@@
77
AC@@
ES@@
Foniqi
Fried
Kabaşi
Poor
Por@@
Priştineli
Radmanoviç
Rahibe
Razvan
Sarayı
Türklerinin
adaletin
ala
aren@@
artışın
arının
atıldı
aydın@@
aylarca
baskısı
belirsizlik
bilgilendir@@
birleştiril@@
bulunacağını
bulunmaya
cezaevi
cilerin
denli
diğerlerinin
eğitime
firmasının
geleceğinin
göstericiler
haklar
iktidar@@
ilgisini
kadarki
kampanyanın
kulüp@@
mallarının
maçı
moderniz@@
mutlu
nakit
nakledil@@
sağlamanın
sağlayacaktır
serbestleştirme
seviyesini
sivillere
standart
suzluk
sözler
sözünü
sürerken
tarak
teknolojik
termik
tesinde
verildiği
vermedi
yapılacağını
yayınlandı
ziy@@
ziyaretin
çatışmaların
çeyreğinde
ölümü
öngörül@@
önlemleri
+
160
AAK
BA
Feith
Geleceği
Gölü
Hazar
Kariç
Ljiljana
Mlacan
Monitor
Nicolas
RTK
Ri@@
Sekreter
Teknik
Yorgos
Zannier
Zo@@
ajansına
ane
azı
açıkladığı
belirleyici
bunda
deniz@@
dünyasının
düşünülen
edecekler
ellerinden
emi
ettik
eşsiz
getireceğini
geçtiği
iddianame
ihaleyi
ilgilendiren
ilkelerine
illeri
kaldırmaya
kalite@@
kaygılarını
keti
konsorsiyum
konumu
kurbanı
malar@@
muş@@
nik@@
oni
politikasına
reddederek
sars@@
sorgula@@
suya
sınırında
tarafta
tavsiyede
tavır@@
tedbirlerini
tutma
tüken@@
türban
tüz@@
ulmuş
umuyorum
yetersiz@@
yetkilileriyle
yöneltilen
yönettiği
yükümlü
çetin
çıkarmaya
çıkmaz
şansının
1.
7.
98
Bitiki
Danış@@
Derviş
Entegrasyon
Hoca
Jacques
Karolos
Katar
Katılım
Mark
Meydanı
Nicholas
Sey@@
Yıl
anlardan
anısına
arkadaşı
aylardır
ayrılıkçı
başard@@
başkanlığının
bildirilen
cumhuriyetin
dairenin
değiştirilmesi
entegre
eyaleti
gelirken
gençlik
getirmeyi
geçirildi
gittiğini
görünen
gözlem@@
hafiflet@@
harcanacak
ileride
imir
irleri
istis@@
kalanı
kararından
karayol@@
kaç
kiç
konferansın
konularını
luluk
mayın@@
meyecektir
olamaz
ordusunun
oylamanın
oylamaya
pilot
piyasaya
pop
reklam@@
saldırıya
satışa
sevk
subay
sunması
talepleri
tanımlan@@
tasarısı
televizyonu
uzu
verileceğini
vermeleri
yapıldığını
yönetimine
zirvenin
çalışmalara
çıkaran
İskender
şartlarından
şartlı
Bun@@
Burada
Fon@@
Holbrooke
IM@@
IN@@
Korgeneral
Küresel
Lim@@
Mahkemesiyle
Milos@@
Organize
PACE
Rompuy
Stefan@@
Süreci
Tassos
Zemun
abilirler
acılar
araçları
ardında
arttığı
askerin
ayak
azınlıklar
beraberinde
biyolojik
biyometrik
borçlarını
bulabil@@
bütçenin
dahil@@
danış@@
derneği
diş@@
dostluk
doğusundaki
döneminin
dönüm
egemenlik
eser
etkileyecek
etkiliyor
fe
foruma
fırsatlar
gelmesinden
güce
gül@@
hük@@
ilecek
ilişkisi
işletmelerin
kalitesini
kararla
kaçakçılığıyla
kg
kuruluşlar
köşe
kısıtlamalar
laboratuvar@@
lamış
lamıştı
lehinde
listesi
luğa
merkezin
meşru@@
mücadele@@
nefret
niyetli
olaylarına
olağan
oper@@
orsunuz
prosedürleri
protestocular
röportaj@@
san
sanay@@
sandalyeli
sporcular
sürdüler
sürdüren
sürülen
tac@@
tarafa
tatbikat
televizyonuna
time
toplumuna
uzmanlara
yükse@@
çalışacağını
çat@@
ömür
öncelikler
ılımlı
şartlarının
şeye
-ki
20.
Aş@@
ECB
Insight
Kampschror
Martin
Mitev
Moody
Pahor
Pu@@
Ra@@
US@@
amaca
belirleyecek
birliğini
bulunduğ@@
dediler
değerleri
doğum@@
durdurmak
duyurdular
düşmesi
ekonomistler
etrafındaki
geçirmesi
gruplarının
gönderildi
güne
haftada
hakimlerin
hayatı
hayvan
helikopter@@
iminin
imkanı
inanc@@
istismar
jüri
kalmadı
katkılarıyla
kokain
kulak
kuvvet
küçült@@
lıyorlar
masındaki
meselesinin
meyeceğiz
okullar
olmamasına
oluşturdu
pasaport
saldırıların
sandık@@
sorguya
sorunlarının
sunmaya
söylentiler
sınav
tamamlama
tecavüz
tesisin
tesisleri
vas@@
yalanladı
yapacağız
yebileceği
yıkıcı
yılını
zulüm
Öğren@@
çalışanlar
çocuklarının
çıkmış
çıkış@@
ötesine
8.@@
Aj@@
Baş
Bulgarlar
FENA
Ivanoviç
Ka@@
Kalk@@
Kulübü
Kış
Luk@@
Milenkoviç
Müf@@
Ohrid
Papuliyas
Raj@@
Srbija
Toplum@@
Va@@
Vesna
Yargı
artırması
arşiv@@
açıktır
bedeli
belirledi
bertaraf
beğen@@
borcunu
boşalt@@
bulunmuş
bünyesindeki
cesi
civar@@
direktör
düzenlemeler
eleştirilerine
eserleri
geleceğiyle
generalin
gidip
girmeye
gribi
gösterilmesi
gözle
haksız
havaliman@@
iliğe
işlerin
işletmeler
kalacağı
kamer@@
karşıladılar
kentsel
kredinin
larımıza
lenme
liklerinin
muhalefeti
nakli
nedenleri
olanakları
olmayacağı
organı
parlamentodaki
saha
sandalyelik
sağlığı
silahlar
subayı
sürdüreceğini
tanıma
temizleme
teye
teşhis
usundan
uygulamaları
vaatlerini
vade@@
verebil@@
vic@@
yasaklan@@
yatan
yebileceğini
yetkililerden
yüzyılda
zede@@
Üyelik
örgütlerinin
özgürlüğ@@
ülkeler@@
ıyorlardı
1,4
7,5
88
Değiş@@
Kab@@
Kürtlerin
Libyalı
Lukoviç
Mut@@
Necdet
Oy@@
Pekusiç
Tat@@
Teresa
Yetkil@@
algılan@@
anlık
açıklıyor
bahar@@
başındaki
cu@@
dans@@
deleg@@
değiştirme
dokun@@
endişeyi
esnek
garanti@@
gergin
gol
görüşleri
güneydeki
günümüz
harcamalarını
ikler
ilanından
ileti@@
istenen
ister@@
işlevsel
kahra@@
kanıtlar
kitabın
kurallar
köyü
lerimizin
liderlere
lini
madık
medikçe
meyeceğine
muhafazakâr
operasyonda
park
plaj@@
protestocul@@
psikolojik
receğine
roman@@
ru
ruhsat
saatlerinde
siyaseti
sonuçlandır@@
statü@@
ste
suçlandı
sözlerinin
sınırlarını
tarzı
tasarının
tay
tecrü@@
tedarik
tiğinde
toplayan
uyarısında
uyruklu
veda
vurularak
yakalamak
yanda
yapmıştı
yetkileri
yetkilerini
Ödülünü
ılıp
1.500
Bakanlığının
Bank@@
Drazen
Güven@@
Matthew
Medya
Novinite
Olympic
Operasyonu
Petkoviç
Pren@@
Proeski
Samarciç
Sağ@@
Thaci
Yer@@
ailesine
artırarak
açmaya
açılışı
bahç@@
baskıs@@
beldesi
birisinin
bot@@
bugün@@
cevap
davasının
dene@@
dergisi
dili
dille
düzenlemeyi
düşürül@@
eleştirenler
emrini
enleri
evine
gecikme
girdiği
girmiş
gözler
haklarında
idis
ilerlemeler
inter@@
itibar@@
içinde@@
kaldırdı
katılımına
kentinin
kesin@@
konuma
korkunç
koşul
maaşlarını
niteliği
noktaları
olaya
reformlarda
samimi
sekreter@@
serbestçe
silahların
suçluyor
sıklıkla
taraftarlar
tati@@
taşıma
trafiği
ulaşma
uyarıyor
uyuşturuc@@
vurguluyor
yuv@@
yürüyüş@@
çapındaki
çıların
örne@@
ürünler
üstünlüğünü
ılığından
şiş@@
10,@@
Cin@@
Enver
Finans
Georgievski
Müslüman@@
Ne
Polisi
Radmila
Rumları
Stoy@@
Suudi
Trajkov
Yovanoviç
Zastava
abilecekleri
acağımız
acen@@
adaletten
ahlaki
aldık
alınmasına
azaldı
belediyenin
bil
bölgeler
ciddiye
cumhurbaşkanını
daireleri
dem
destekley@@
dökül@@
edenler
engelleyen
enklav@@
erte@@
evlerini
evska
fabrikanın
faktör@@
fırsatları
gösterilecek
hedefe
heyetine
işçiler
kasıtlı
kaydederek
kaynaklandığını
komiser
konsorsiyum@@
konusuna
korsan@@
kutluyor
küresel@@
lenmesine
leyic@@
liydi
lığında
mahrum
manlık
merak
nü
olun@@
oluşturmaya
onaylaması
ortalarında
oto
otobüs@@
rim
sakinleri
sanatçının
sevk@@
sisteme
soruşturmayı
stratejisini
sınırının
tarafları
toplantısının
toplumla
türünün
umuyoruz
uri
uzlaşmanın
uçuş
yaklaştır@@
yapmasını
yaratacak
yetersizliği
yönetiminde
yükseltti
Çer@@
İttifak@@
ığından
şimdiyse
Alakbar
Arnavutlara
Başkanlığı
Beş@@
Bosn@@
Cos@@
DTP
Darko
Demir@@
Ditore
Helsinki
Hiseni
Komut@@
Komünist
Kürt@@
Kürtçe
Letonya
Projesi
Reisi
SC@@
SEECP
Say@@
Sem@@
Stamboliç
Sü@@
Victor
akademik
akl@@
akoviç
aleyh@@
almanın
alıların
anlayış@@
anlaşmazlığına
anlaştı
ayacak
bakımından
basit@@
başlattılar
belirtilen
biliyoruz
bütçesinden
bütünlüğü
denetle@@
değiliz
dinamik
dükleri
engelleme
erkek@@
füz@@
getirilecek
geçme
geçmişteki
görevl@@
görevlilerinin
hesab@@
insanlığa
irades@@
isimleri
kasaba
kavg@@
kaybı
kenara
köprü@@
kınayan
lıların
maktı
metal
okullarda
olanların
olaylara
paketinin
planlıyorlar
polisle
popüler@@
rahat
receğ@@
rolünün
sendikalar
sevilen
sevin@@
seçeneği
seçime
simgesi
sorunlarına
sün
sürül@@
sınırına
taslağ@@
telekomünikasyon
toplamak
unsurlar
uygulanmasının
yakalama
yalnız
yaratan
yavaşlat@@
yitir@@
yiy@@
zen@@
önerileri
özgürlüğüne
üc@@
üncü
üyü
üçün@@
İnşaat
ımla
şaşır@@
şiddeti
71
Antonela
Bayramı
DDY
Jak@@
Kurti
Lip@@
Mavi
Nenad
Operasyon@@
Oyunlar
Pakistan
Politikası
Sosyalistler
Svilanoviç
Wolfgang
adaylık
akşam
almadan
alışverişi
atarak
ayet
azınlıklara
açılış@@
bakanların
bakanlıkları
bakıyor
başkentin
belirlendi
bulan
bulunmasını
bulunmayan
bölgelerdeki
bütçesine
cezasını
dalgası
demokrasiye
destekçileri
diplomas@@
dok@@
doların
duktan
durumuna
düşünülüyor
düşüşe
dışarı
edilip
engellerin
eseri
etmediğini
etse
fabrikasının
fiz@@
gazı
genin
gerginlikler
görüşmelerden
halini
ildiği
imde
isteği
itibarını
izin@@
kırıklığı
lehine
maaşlar
madılar
mindeki
mücadeledeki
olduğumuzu
onaylandı
oynuyor
pazarında
planlar
pozitif
pu@@
rejimine
rit@@
sermay@@
sinden
sistemlerinin
sonucun
stratejisinin
sürücü@@
sıralam@@
taciz
tamamlayan
taze
temsilcilerle
toplay@@
tutumlarını
uygulamasını
vurdu
yasalarının
yerleşim
zorluklar
çalışmada
çevresel
çok@@
çıları
önlemlerin
örgütlerin
özgürlüğünün
üstün@@
üstünde
İç
şüphelilerin
şüphesiz
1984
Arjantin
Biz
Caz
Destek
Ermen@@
Filistinli
Franco
Gates
Jovan
Kürtler
Kızıl
Leakey
Meh@@
Ni@@
PNL
Petrescu
Trakya
UNHCR
Vis@@
ain@@
avantaj
ayrıcal@@
açıklanmayan
bağımsızlığa
başlandı
beklem@@
bilgilerin
bisik@@
cileri
cumhuriyet
cüsü
dairesinin
eder
egemenliğini
ekonomileri
eliç
elle
emedi
etten
evinin
eşi@@
festivalinde
gerginliği
gurbet@@
görevinin
görevler
güncel@@
günümüzde
gününden
haftalar
harcama
havaalanı
hazırlıkları
irim
işbir@@
kampanyasının
kaynakların
kel
kendisiyle
korku
kurallarına
köyünde
liklerine
madencilik
madıklarını
mam
ortalamasının
ortasına
partili
partisinden
patlayıcı
reddetmesi
reformlarının
rest@@
savunarak
saydı
sağlayacağı
sendika
sessiz
seçmenleri
sorularını
sorunsuz
soruya
suyu
sürecinden
süresini
sınırlarının
taj@@
tarihin
temizlik
tersan@@
teröriz@@
ulaşan
vergileri
verildiğini
yarışmasında
yükümlülükleri
yürütülecek
zammı
zanlıyı
zararlı
İhti@@
İşler
ığın@@
ışma
şaibeli
şeylerin
96
Atatürk
Baj@@
Bey@@
Erhard
Eş@@
Google
Kurum@@
Ladin
Miliç
Passy
Popovski
RO@@
Rocen
Serge
Vuc@@
Ze@@
ayarak
azalması
açmış
bankaları
dakikada
değerlendiriyor
değilim
dönüşüm@@
düzenlemek
edebilecek
emiyor
erdir@@
etik
etmeli
evinde
farkına
galip
geleneğ@@
gelmediğini
genişlemesi
geçirmeye
giderken
girişimde
giç
güçler
hareketle
heyetin
hı
ibaret
istlerin
içinden
içinse
karşılaşmasında
kaçmasına
kemer
kesimlerinde
kolaylaştırmak
liderinin
listenin
lojistik
maddesi
mallar
mezun
milis
muhtemel
müfred@@
mür@@
olaylarını
olmaksızın
olum@@
olur@@
paylaşıyor
peş@@
polisine
rekor@@
sabahı
saldırısı
santr@@
sanığın
satan
sonuçta
sınırlar
tica
toplantılar
umudu
uçağ@@
vardılar
verileri
yaral@@
yarışacak
yarışmada
yaşamak
yoğunlaştır@@
önerisine
ürünlerinin
üss@@
İdare
İzlanda
şaşırt@@
şiir
9.@@
A1
Barack
Bazı
Dairesinin
Denktaş
Gjorge
Gök@@
Günleri
Lehne
Mahkemesine
Ok@@
RTS
Rak@@
SEE
Saray
Yönetimi
Zlatko
Zor@@
abileceğine
agiç
ansa
arkadaşları
aydı
açlık
açmıştı
açıklamalar
bağlılığını
başlarına
belediyelerin
bombalama
buradan
cesur
davalarını
davalarının
değişimi
direktör@@
dosy@@
duyan
ediyordu
eka
engellemeye
geliştirmeye
genelindeki
gerçekleştirmek
getiriliyor
getirmede
geçer@@
gittikçe
grafik
görüşler
görüşmeye
hafifle@@
hatları
herşey
hibe
hizmetlerini
hükümetlerinin
ifadesine
istişar@@
kaldırılmasını
kalite
kararında
kolu
kural
köpr@@
kıdemli
landırma
liderleriyle
luyorlar
mamalı
manzar@@
mayacağına
medyası
melerle
meme
modernizasyon
nedenlerinden
niteledi
okum@@
operasyonlar
osunu
oyunun
piyasası
politikalarının
poz@@
safhada
sam
sağlıklı
sekreter
seniz
standard@@
tamamlay@@
tartışmaların
taviz
top
tutmaya
tutuklamalar
uyardılar
verilerine
vermenin
yazan
yed@@
yeler
çektiği
çiftçiler
ödemeye
önerisinin
ülke@@
ülkesindeki
üstlendi
şikay@@
şok@@
170
92
99
Bizans
Boşnaklar
CN@@
Cumhur@@
Donald
Fouere
H5N1
Mag@@
Me@@
Müslümanların
Ner@@
Yolsuzluk
Zirvesi
adayın
alarındaki
arananlar
askerlerini
atına
azınlığın
başlangıcı
belirtmekle
bileş@@
bulması
cami
davayla
deniyor
devletten
değil@@
değişti
duyuruldu
düzenliyor
esas
evleri
firmalarının
fuhuş
gençleri
girişime
girişimini
görmeye
göçmenlerin
hedeflenen
ihtiyaç@@
ilanı
ilanının
ilgilendiğini
izli
işte
kalar
kalmasına
karardan
kararların
kardeşi
kartı
katılacağı
kaydı
kazandığını
kağıt
kesinti
kiral@@
kitle
komşusu
konserler
koşullarının
krizinin
kuru
kutup@@
malzeme@@
marat@@
memurunun
müzakerec@@
nezaretinde
pap@@
sabır@@
sahil
saldırıda
sanıklar
seçimlerle
soruşturması
suçundan
sömür@@
sürec@@
sıkıntısı
sınırdışı
tehditler
tehditleri
toplumdan
toplumları
tutuklanmasının
umuzu
vakit
yaptık@@
yapılacağı
yarısından
yeteri
yönetil@@
Çağrısı
önyarg@@
öykü@@
ürünü
İşleri
ımlı
şansına
.bg
97
American
Başk@@
Bildt
Buk@@
Caf@@
Catherine
Charles
Eide
House
IOC
KPC
Kamp@@
Karş@@
Kiş@@
Kozloduy
Obradoviç
Ordu
Orgeneral
acaklarına
adımdır
alabilmek
artı
avlyeviç
ayırdı
basının
başlayıp
bölgelere
büyümeye
bırakıp
denetimli
derinleş@@
devret@@
değişikliğin
dinam@@
dolaşımı
dönemden
dönmek
düzine
dığının
edeceğ@@
eleştiri
eleştiri@@
evin
fal@@
feri
fikrine
fiyatlarını
gazetecinin
getirilmesini
geçmişe
giriyor
gisi
grubuna
güvenliğe
hayal@@
istemediğini
istismar@@
kalmayı
kaybetmiş
kazanıyor
koyma
kulis
kurulunun
kötüleş@@
kültürü
lendirdi
leştirmek
memnuniyet@@
mesleki
miyorum
muhafazakar
müzakerecisi
nedeninin
nehir
nüfuzlu
olacağız
onlarla
ortamında
oynadı
prestijli
sahiplerinin
setlerle
sunma
sınırındaki
taleb@@
tanıtım
tasarısını
tikleri
tutuklu
uygulamayı
yaklaşırken
yakınındaki
yapıp
yargının
yenilg@@
yumuşak
çalışmasını
çiziyor
çoklu
çoğ@@
çözümüne
ört@@
üzüntü
şartıyla
şaşırtıcı
12,@@
550
86
Amerik@@
Avrasya
Cez@@
Dabilis
Daires@@
Dedeağaç
Dnevni
Free
Gana
Gent
Görev@@
Iliç
Kosanoviç
Ofisi
Pavkoviç
Sig@@
Transilvanya
Yargı@@
adaylığını
amayız
anacak
anlaşmazlığını
ardındaki
atmış
ayolları
baharda
bakanlığa
barışın
başlatılmasına
belgelerin
belirtirken
bilinç@@
birinc@@
bugünkü
cumhurbaşkanlığına
diniz
dolayında
edebileceği
edilebil@@
ekipleri
eliler
enflasyonun
engeli
eroin
evac
gelebilir
gelince
gelme
getireceği
getirmesini
girişiminin
grupta
görecek
gösterdiler
hazırız
hesaba
ilerletilmesi
iliğini
ilkeleri
imine
islav
istifaya
işçilerin
kah@@
kalitesi
karakol@@
katılmasına
kaygı
kayıtdışı
klerini
komşuları
konsey
korunmasına
korunmasını
kulüb@@
kutlamak
köklü
maksızın
maliyetleri
manev@@
medyasına
memurlarının
meselesini
miras
modeli
muame@@
müdahalesi
nitele@@
noktas@@
olmazsa
olursak
onayladığı
ordu@@
restoran
riske
sahipti
sayıları
senaryo
seslenen
seviyesinin
siyasilere
tamamında
tecrit
tepe@@
tesislerin
tikten
ulus
vaadinde
vergiler
vide@@
yaptık
yaptırım
yaptırımlar
yapılar
yapımc@@
yarattığını
yaşadıkları
Çiçek
Ürdün
çıkıp
ölçü@@
ölümünden
öğret@@
üretiminin
üyeler@@
İliç
İsveçli
ılabileceği
ılıktan
87
Feder@@
Festivalinde
Gordon
Hüseyin
Iliescu
Kalfin
Kav@@
Malta
Milanoviç
Ordusunun
Partinin
Philip
Polt
Sibenik
Tahiri
Türkçe
akış@@
alana
albü@@
arlı
atanması
bakanının
baskılar
beklenmedik
belirtmiş
bildirge
borçları
bulunmadığı
cadde@@
delil
dengeli
denges@@
diyorlar
duyuruya
düğünde
edeceklerini
edilirken
endişeleri
etmede
etraf@@
felse@@
forum
gev@@
gittiği
günden
hazırlamak
hektarlık
heykel@@
iddialar
ihmal
imzalayan
kararıyla
katılımcılara
kayak@@
kimileri
konsorsiyumu
kurallara
kuran
lesine
limanı
listeye
lunun
lül@@
mafya
mahalle@@
materyal@@
meblağ@@
mezse
muhteşem
ofis
olabilmesi
olaylarda
oyuncular@@
personelinin
projelerini
rütbeli
savaşta
sağlanmasına
sebep@@
sergileniyor
sürdüğünü
sınırsız
taban
tamamlandı
tici
tün@@
ularının
ulmasını
varlıklarını
vatandaşlarını
vatandaşının
vet
yedinci
zinciri
Çağdaş
Öğretim
çalışmalarında
çalışmayı
çıkardığı
önemdeki
üğünü
İliş@@
ımad@@
ıyorsunuz
ızca
şirketine
240
6,5
Bizim
Borislav
Cal@@
Daimi
Dön@@
ESM
Fitch
Fonun
Kil@@
Kru@@
Latin
Nesovski
Plavsiç
Rumlarının
SNS
Saraybosnalı
Tose
Ul@@
adımın
alınarak
anlaşmadan
antren@@
atandı
ağında
aşı
bahsedil@@
bankasının
bildirgede
birimleri
blog
bulunmakla
bırakıldı
cal@@
chi@@
danışman
davasını
dağlık
destekleyeceğini
değişikliklere
dikkatle
düşürülmesi
eceklerine
eceğinin
edinme
ekipman
ekmek
festivaline
gayet
geleceğin
gelmiyor
gerçekleştirdiler
gezi
görüşmelerine
gündem
güneyinde
hali
hareketinin
hazırlama
ifadesinde
istedikleri
isterken
kanlı
katılacak@@
kaygı@@
keler
komite@@
kur
liğimiz
lular
luy@@
maçında
mden
meslek
mülteciler
müttefiki
noktasında
ofisinden
olsaydı
oranlarını
orta@@
oyuncuları
paket
parasal
radikal@@
role
savcılığın
semin@@
sizi
skandal
sonlarına
standby
sözlerle
sürdürüle@@
süs@@
tamamlanacak
tepkilere
tirilmesi
tıktan
tım
usulsüzlük@@
uçağı
yapıların
yorumları
yoğunlukta
Ülke
çoğunluğun
çıkmasını
İler@@
ılırken
1,7
650
93
Airways
Avaz
Ağ@@
BH@@
Başbuğ
Cristian
Crvenkovski
DE@@
Havayolları
Hillary
Mari@@
Müzik
NMS
Online
Pula
Rijeka
Shkullaku
Sosyal@@
Sovyetler
Telecom
Th@@
aktris
alanına
anması
arkeolojik
asyonun
açacağı
açığa
bas
bağımlılığını
başkent
biliyorum
bilmiyorum
değişikliğe
değiştirilmiş
dikil@@
dinar
donanım
döne@@
dönmeye
düzenlemesi
düşündüğünü
forumda
geleri
gerçekleştirilmesi
gömül@@
güvencesi
güçlerine
haftadan
hediye
heykel
hiç@@
imzalamak
inanç@@
içme
kaldılar
katılıma
kayde@@
kesiminin
kri@@
kurulmasının
lağv@@
lehte
luğunun
maliy@@
mazsa
mekti
mensubu
okuma
oluşacak
ortaçağ
partisine
projelere
rafiner@@
seminer@@
sindir@@
soykırımla
sunuluyor
taşımacılığı
temyiz
topar@@
tura
uzmanlık
veriyorlar
yaklaşımı
yang@@
yanıtlayan
yapılandırma
yapıyoruz
yaşadığını
yaşın
yurtdışından
zayıflat@@
çalışarak
çekerek
çete
önc@@
ılımı
ımcısı
-ve
0,5
ARM
Alina
Balkanlarda
Bankasının
Fa@@
Ion
Kanadalı
Kanunu
Kes@@
Kit@@
Koalisyon
Kragujevac
Marty
Nükleer
Petrol
Pierre
Radikal@@
Sadiku
Traykov
Vukceviç
Yal@@
abileceklerini
adımların
afet
amadan
anayasayı
anti
araçlar
azalıyor
açarak
bec@@
belge@@
bildirgeyi
bira
bölge@@
ceğ@@
cinayeti
clock
desteklemeyi
diktatör@@
diyaloğa
durdu
düzenleyerek
eceğimiz
ederse
edilme@@
ender
endişeli
entegrasyonunun
ermesi
ettikten
fikirler
fiyatların
galibi
geleceğ@@
gevşek
gezisi
girişimler
gre@@
görmesi
görmezden
gösterirken
hizmetlerinin
iddianamede
ihtilafından
istemiyoruz
işlediği
kademe@@
kalın@@
kamusal
kargaş@@
karşılayacak
karşılayarak
kasabasındaki
kavuştu
kaydede@@
kaynaklarına
kentteki
korkuyor
koyan
kullanımının
kurallarını
kuruluşların
memnuniyeti
muhabir@@
noktal@@
osa
otobüs
otomatik
oysa
pozisyon@@
riskli
saldırıyı
seviyelerde
sonsuza
sorumlular@@
sıkma
taksi
tartışmanın
tasarlanmış
tedbirlere
trafiğe
tutar@@
unuz
uyarıyorlar
vaka
vermeden
yargıla@@
yatıyor
yaşamlarını
yaşandığını
yönetilen
çalışmanın
çar@@
çevirdi
çif@@
çıktılar
önerilerini
üstünlüğünün
İvana
şartlarda
Aleksander
Branislav
Dyukanoviç
Freedom
Genç
Genç@@
Hırvat@@
Jones
Kral
Kül@@
Lukoil
MI@@
Milutinoviç
Oyunların
Raufoğlu
Savaş@@
Securitate
UDF
UEFA
Wi@@
Yves
Zenica
abiliriz
ailelerine
aktan
alanların
alardaki
anlayış
anlaşmazlığa
arında
askere
ayrılacak
ayrılık@@
aşamasında
başlatılmasını
beklentileri
belediyede
bildirisinde
birim
borcunun
bölgelerindeki
bırakan
ciddiyet@@
davaya
dengesiz@@
derece@@
destekledi
durgunluk
edileceği
egemenliği
eleştiriyor
eyleme
faydalı
filminin
gayrım@@
gelirlerinin
geçin@@
geçmişin
haftanın
hazırlanmasına
hile
hukuka
ihtilafın
iken
ilginç
imizden
ittifak
içeri@@
kalacaklar
kalmıştı
karşılamaya
karşılanması
kaybede@@
kaygılar
kazanmıştı
kilometre@@
kullanıldığı
kulü@@
kurdular
kurt@@
kutlama
kuvvetlerin
kü
lıyoruz
mayacaktır
meseles@@
meyeceklerini
müreffeh
nesil
onlardan
paylaşımı
pazarındaki
protestolar@@
saldırgan
sanal
sanatçıların
sayı
sun
sunmayı
suçlama
sürdürecek
tartıştılar
tavrı
tebrik
tipi
tiyor
toplumda
tığımız
uyor@@
verilmesine
yatırımlarının
yaşanacak
yenlere
yetkisine
Öcalan
üreten
üyelerin
ğer
İddianamede
ıcıların
ımından
Şala
19.
9.
Blago@@
Boy@@
Budva
Cr@@
Dan
Ef@@
Express
Güler
ISAF
Il@@
Mandiç
Moldov@@
Mültec@@
Ras@@
Sürec@@
Taleski
Tatlıses
Televizyonu
Topiç
Tray@@
Vadisi
Vlatko
Yeş@@
almakta
alternati@@
anki
anlattı
arayan
araştırmalar
artırıyor
atiç
ayrıntıları
açılmasına
başlamadan
bon@@
bölüm
büyükelçileri
dak
değişti@@
düzene
edilerek
etkiledi
ettim
fazla@@
galibi@@
gelişmesi
genişletme
gerektiriyor
gerileme
gerçekleştiği
gösteriliyor
hamle
harca@@
hastanede
hazırlıyor
herkesi
his
hissedil@@
huzurunda
hırsız@@
iciç
ikincisi
ilaç@@
ilinde
isterim
kabinesinin
kanser
karanlık
katılacağını
kazanmaya
kolek@@
koruyacak
koruyan
kuracak
kurumlarında
kısım@@
kısıtlamaları
les
müfettişler
müzakerelerindeki
niyeti
olimp@@
olmadıklarını
oya
parası
partisini
pazarın
projelerinin
rafin@@
rah@@
raportörü
reel
reformcu
reformun
rehin
ressam
ruhu
sağlam@@
sonbahar@@
stratejinin
söylem@@
sözlü
talebiyle
tartışmaları
tren@@
uygulamanın
uzlaşmacı
uzunluğundaki
yapımına
yargıçlar
yayınlanacak
yemin
Üniversite
çağrı
çekilen
örgütlü
İv@@
ılmaya
şahıs@@
--@@
11@@
91
Alman@@
Antalya
Au@@
BNN
Baran
Ben
Borissov
DiCarlo
Emek@@
Es@@
FIFA
Faz@@
Gazetecilik
Geçici
Jansa
Joachim
Konseyinin
Kup@@
Limaj
Niş
Olimpiyatlar
Tü@@
Tüm
Venizelos
Yabancı
altın@@
alı@@
alışverişinde
analistlere
anayasada
anlamıyla
araştırmacı
artıracağını
aşır@@
barın@@
bağları
biriminin
birleşmiş
buz
bölünmesi
büyükelçiliği
cenaze
daires@@
dec@@
denge
disiplin@@
domuz
duyuru
duyuyorum
dönüştürme
düz
düzenledikleri
ea
ektir
emekl@@
enflasyonu
era
eyen
faktör
farklılıkları
gelişmelere
gelişmelerin
gerekmektedir
gerçekleşti@@
gerçekte
geçmeye
gösterdikleri
göstermeleri
gündeminin
halihazırda
halkla
huzuruna
iliğinin
int
kanıtla@@
karşıladığını
kası
kazı
kesimler
keşif
kiler
koleksiyon@@
koymak
kurbanları
kızı
lisans
maddeleri
madıkça
manız
mesindeki
mevkiler@@
miyoruz
müstakbel
oldu@@
olmamız
onayına
perakendec@@
planlarına
reddettiler
reddettiği
riskini
riskler
sarf
sağa
seçeneğ@@
suçladılar
suçlayan
sıralamasında
tahminlere
tarif@@
tenisçi
toplumlarının
tüketiciler
umarım
utanç
vekili
yalan@@
yayımlanan
yaşamın
yürütecek
yüzleş@@
zorluk
çağırıyorum
çekmeyi
çizg@@
çıkarmayı
önlem
önleyici
örgütlere
ümün
ıcıları
şen@@
şirkete
şoför@@
21.
5,5
79
Albay
Ancak
Clark
Demokratların
Elçisi
Fotoğraflar
Girişim@@
Hüküme@@
Irish
Kadare
Kuvvetler
Küçük
Muhammed
Pan
Patten
Romano
Sah@@
Sev@@
Slovak
Steel
Sınır@@
Tetovo
Topalli
Tümgeneral
Vlasiç
Vran@@
abilen
abı
adaya
akar@@
aktör@@
anlaşmazlığın
ant
arabulucu
argü@@
ayrılma
bakıl@@
bağımsızlıktan
başarısını
başkanlarının
becerilerini
belediye@@
belirleyen
bölücü
böylesi
cam
chev
derne@@
değerlendirmesi
değişim@@
durdurma
duğuna
eceğim
edec@@
edilmemesi
ekolojik
ekonomilerinin
elbette
eleştiriler
endüstr@@
fikr@@
fuarı
gelişinden
genişletilmesi
gerçekleşmesini
gerçekleştiğini
getirilmesine
girmesini
güçlüklerle
havaya
hazırlıklı
hoşgör@@
hükümetinde
ifşa
ihalesini
işbirlik@@
işletmeleri
kanser@@
karşılanacak
kaygıları
kaçırma
komutan@@
koşullarını
köprünün
kırılgan
lant@@
laşmış
laştırmak
leşmenin
mekanizma
metine
meyve
milyon@@
niyetinde
norm@@
olacağından
opera
oranıyla
oyunc@@
projeyle
protestolara
sahibiz
santralin
sağlayabilir
sezon
stan
suçlarının
takviye
tanın
teröristlerin
toplantısını
tuk
uyru@@
uzatma
varsay@@
vermekte
yapmaktan
yarısını
yarışmaya
yukarı
zi@@
Çek@@
çözümlen@@
çıkarken
ödeyecek
ödüllü
önlen@@
ülkesiyle
İnsan@@
İsa
ılacağına
ılma
şair@@
şehr@@
0.@@
1,1
Arası
Besa
Birliğinin
City
Fi@@
Fuele
Futbol
Gracanica
Gür@@
Harek@@
Hedef@@
Jandrokoviç
Jociç
Jonilda
Lil@@
List
MESS
Miodrag
Misko
Muhalef@@
Mütte@@
Okulu
PD
PTK
Pir@@
Rumsfeld
Sırplarla
Yunanlıların
Zarko
alabilir
alacak@@
amaçlar
artmasını
atik
açtılar
barajını
baskın@@
başkanını
başladığında
beklenirken
belirlediği
birincilik
borçlu
büyükelçilik@@
damgasını
davranış
dergisinin
dönemdeki
dönüştü
dükten
düm
düzenley@@
dığım
editörü
eki
emir
enf@@
fakül@@
farklılıklar
fas@@
gelebilecek
geliyorlar
gençlere
gerçekleri
getire@@
görevinde
görülmesi
göçmenler
haberdar
hastalık@@
hedi@@
hitap
hızı
ideal
ideki
imzalaması
inisiyati@@
izol@@
kalıntıları
kalırken
kampanyasını
katılmaları
kazanırken
kele@@
kesinleş@@
kimliğini
konaklama
konseri
kısıtlı
lüğünün
maaşlarına
maaşlarının
macılar
maddelik
medyasında
mese
miktarlarda
muamele@@
mücadelesi
orduya
pahasına
patlay@@
performansını
rady@@
sektördeki
silahları
sistematik
siyasetin
soruşturmada
suçlara
söyleşide
sınırların
tamamının
tedbiri
tedbirlerine
teleri
vaat
vat@@
verenler
vermediğini
yaklaşıyor
yalılar
yanındaki
yanıtı
yapmanın
yaptıklarını
yerlere
yeter@@
zirvesinin
çare
çekici
çoğunluğa
ödülüne
ölen
öngör@@
ülkemizin
üretilen
ürünlerin
üstün
üyesini
ılabilmesi
Şimdi
şüphesiyle
1500
1970
3,3
Alexand@@
Barbu
Bill
Corporation
Cv@@
Denetleme
Düş@@
GS@@
Görev
Han@@
Hasan
Limay
MOL
Mihai
Nis
Orkestrası
Ot@@
Papademos
Pliva
Profes@@
Sınır
Tarih
Varşova
Venedik
amamış
anlaşmazlıkların
bağlılık
başarıya
başlamaya
bilmek
binaların
bulunduğumuz
ceph@@
damg@@
deprem@@
dernekleri
disip@@
dönüşleri
dönüştürül@@
düzenlemeleri
düşük@@
enflasyon@@
etmediği
etmelerine
ettiğimiz
eğilim
farkı
filmleri
fiyatlarına
form@@
gelişen
gelmektedir
gencin
gerektiğinin
gereğinin
geyi
gitmeye
görüşlere
görüşmesinde
güçlük
hakkının
haritası
haz@@
hiçbirinin
hüc@@
iflas@@
imzalanacak
imzalayarak
indirim
insanlarla
isimlerinden
ithalatı
kapatmak
kapattı
kayda
kaçağın
kentlerinde
koalisyona
korid@@
kredilerin
kullanmayı
kurumlarıyla
kısıtlama
leyeceği
madığına
mahkemelerde
mallarını
mezar
militan
muaf
mutlak
müziği
nef@@
olanları
pazarlarına
rekabeti
restore
sahada
salg@@
saygı@@
sağlamaları
sektörlerinde
seyrediyor
sik@@
siyasetçilerin
sorular
sorumluluklarını
sosyalist
sponsorluğunda
suçlular
sözleriyle
sözleşmenin
sıraladı
tamamlaması
taraftarları
toplam@@
tutuklanıp
tümünü
tıkça
yabancılar
yarış
yelpaz@@
yöneten
zey@@
Çavuşesku
Çocuk@@
Ö
çabalar@@
çocuğunun
üstlendiği
üyeliğinden
üzüntüyü
üş
İslam@@
Andrija
Anlaşmasına
Arabistan
Baba
Başa
Başsavcısı
Colin
Da@@
Daci
Edebiyat
Ekonom@@
Ey@@
Federasyon
Fiz@@
Fon
Görüş@@
Havalimanı
Hizmet@@
Hıristi@@
KOBİ
Kiril
Koalisyonu
Koci
Komi@@
Komisyonunun
Kristina
Kuz@@
Lov@@
Mahkemesinin
Mitreva
Nokia
Parlament@@
Pazar@@
Schook
Scotsman
Sosyalistlerin
Soğuk
Troy@@
Varna
Yard@@
Yarışması
Yıldız
Zbogar
acağının
aka
akşamı
aldıklarını
apart@@
açabileceği
açıklamaları
açıklayan
aşan
baskının
başlamasının
beyin
birleştirilmesi
budur
bütçeye
büyükelçilik
cami@@
canlandırmak
dairesinden
demokrasiyi
devletlerin
dilekç@@
doları
dördün@@
ebe
edebilmek
edilmesinden
efsanevi
emeyecek
engelli
etim
eylemlerinin
eğlen@@
filmiyle
forum@@
gazetecilik
gece@@
gerginliğin
gesinde
geçirilmesini
geçiriyor
gördükleri
görüşmelerini
güvenin
hane
hareketini
iddianame@@
iktidarı
ileriye
ilerlemesinin
iletişim@@
ilişkili
ilkelerini
imzalanmasının
isindeki
istediler
istlerinden
iyorsa
izler
işçilere
kalkınmayı
karak@@
kaza
kendisinden
kolaylaştırma
korsan
kriterler
kurbanlar
kurması
kurş@@
kısmi
kıyısında
liberal@@
maddenin
metrekarelik
mimari
oluşturulan
onunla
ortaklığı
oturumunda
otuz
oylamayı
oynadığını
parçaları
prosedür
sanık@@
savaşa
sektöre
seçmenlere
sokaklara
soruşturmaya
spekülasyon@@
söyleyebil@@
sını
taslağını
tesisler
trend@@
turunda
usul@@
varlığına
yakalam@@
yaptığımız
yarıya
yarışında
yeviç
yollar
yürütülüyor
yürüyüş
Çe@@
çalışmakla
çap@@
çağrılarına
ödemesi
ücreti
Şahin
şehri
şekl@@
3,2
Bilimler
DOS
Gec@@
Hy@@
Ir@@
Kandiç
Kilis@@
Kouchner
Kumanovo
Kısa
Mile
Mirasları
Nu@@
Opera
Osetya
Politi@@
Reform
Shantek
Sibiu
Sözcüsü
Tanja
Velchev
Veles
Vlahoviç
WHO
Zukorliç
ailelerin
alacaklar
almasının
altyapının
altyapısı
altyapısını
anahtarı
andan
anlatan
anlaşmazlığının
atanan
atılım
ayrılmaz
barındıran
bağımsızlığın
başarılar
belgesi
birinden
bo
bot
bulduğunu
bulgular
burası
büyükelçi
cad@@
cemaati
dayandığını
dediği
dersler
desteğe
dokunulmazlık
dolandırıcılık
doğrula@@
duyurduğu
dönme
döviz@@
düzenlemenin
düzeyi
ememesi
entegrasyonunu
etkiler
etkinlikleri
eylemlerine
faaliyetlerde
fan@@
feri@@
gerektiğinde
geriledi
gördük
görec@@
görüşmelerinde
gözlerini
halktan
hasara
hassas@@
hit@@
ihtiyaçlarına
ilerletmeye
indi
iptal@@
ismini
iyiye
izdeki
izlediği
izlemeye
işlemleri
kadını
kaynaklarından
kazanmış
kaçakçılığının
kente
kentinden
kileri
körük@@
lanmasına
lendiği
luğuna
lüsü
maden
maliyet
mesafe
meslek@@
mirasının
misyonunu
motor@@
organizatör@@
otoyolun
posta
q@@
reformunu
siyasetten
soruyor
soruşturmalar
sıkça
sınırını
tanıklık
tanımlanan
tanıtmak
tedbirlerinin
tesindeki
tug@@
tutarlı
usulsüzlük
uza
uzlaşmayı
vaatleri
yaratmaya
yaratılması
yönetimiyle
yöntem
yüzme
yıldönümünde
çağrıları
çekmesi
çev
çoğunda
çözümünde
çıkarıyor
çıkıyorlar
önerinin
ürünlerini
ıf
şir@@
2,3
3,6
Başbak@@
Birimi
Borsası
Eyal@@
Galerisi
Gazze
Günter
Hala
Hu@@
IPA
Jankulovska
Kim@@
Krist@@
Kurumu
Mekaniz@@
Mladenov
Naz@@
Para
Rady@@
Sak@@
Seç@@
Tep@@
Zar@@
Zdravko
abart@@
ache
adada
akıl
alanının
arazi
araştırmacılar
artarken
atama
ateşkes
banliyö@@
barikat@@
batısında
bayrak
başlı
biliniyor
birbirlerini
bizlere
biç@@
biçimi
bugünlerde
bırakma
değerlendiriliyor
değerlendiriyorsunuz
dire@@
direk@@
diyoruz
duğumuz
düzenleyecek
düştüğünü
e-
eserler
esir@@
etmiştir
ettir
evler
eylemlerin
fa
faktörler
feci
festivalinin
fiyatlarında
gazetenin
getirmeleri
geçmesini
gözüyle
haftasonu
hallet@@
hani
hayatlarını
hazırlayan
hepimizin
heyec@@
hip@@
hızlandırması
ikti@@
ilgilenen
infaz
işletmelere
işçileri
katkılarından
katılmış
kaydedildiğini
kaynaklan@@
kazanmasına
kitle@@
krediyle
kullanmakla
kutladılar
körükle@@
layacağı
liderlerinden
liliğin
meclisinin
medik
miras@@
mirasını
müzi@@
nereye
nis@@
niteliğinde
okur@@
olasılık@@
oluşum@@
oranın
oski
oteller
oynamaya
patron@@
pazara
pazarda
planladıklarını
politikasında
ras
riskine
rolüne
sahiplerine
sahnelen@@
sahneye
sohbet
sonuncusu
stadyum@@
sıradaki
tahminler
tamamlanmış
tanımaya
tanıyor
tarafça
tarafındaki
telefonla
tirmek
topluluk
toprakları
tutarındaki
ulaşmasını
unutul@@
vatandaşlığı
vizyon
yasaklayan
yaşamış
yaşları
yel
yerler
yetkililerinden
yukar@@
yönetime
yıldönüm@@
zamm@@
zanlısının
Çalışmaları
çalışacağız
çalışmasının
ödemeyi
önlemeye
öğleden
öğreti@@
ğa
İnsani
İnş@@
ındır@@
Şirketi
şahısların
13,@@
2,2
450
Air
Anlaşmaları
Anna
Arhin
AİHM
Birinci
Birlikte
Boğ@@
Cyprus
Damir
Dimitar
Downer
Fakat
Fırtına
Joseph
Josip
Kararı
Koz@@
M.Ö.
Marian
Matiç
Nas@@
Nazi
PC
Petroleum
Rudoviç
Tic@@
Tony
Tıp
Vatandaş@@
Yılın
Zadar
aciç
arını
atif
atik@@
atmosfer@@
atosu
ayaklanmalar
azami
açılışında
barışçıl
bayram@@
bayrağını
bilgisay@@
biridir
bro@@
cası
demokratikleşme
değiştirdi
duk@@
durgun@@
duruşmada
dut
dönmesi
ebiliyor
erk@@
etkiler@@
ettik@@
filmde
gelmeye
getirip
grubunda
gönderdiğini
görüşül@@
hava@@
hazırlanmıştır
hedefimiz
hektar
hissediyor
hri
isteksiz
isteğiyle
istifası
istihdamı
izlenmesi
izleyecek
işgücü
işlerine
kalabilir
kapıları
kart
karşılamada
karşıt
katlan@@
kaçan
keş@@
kovuşturma
kullanması
kurula@@
kusur@@
kutsal
kılıyor
lice
makamlara
meblağ
meclisten
medyas@@
mekanizması
milyona
miy@@
müzik@@
nesil@@
okulda
olasılıkları
olaylardan
oluşturacak
oranlarının
organizatörler
organları
piyasaları
politikanın
protokolü
ramı
rer
sandaly@@
sayımının
sezonu
seçenekler
sicil@@
sitesine
sivillerin
soruyu
suikasta
suikastı
suçluları
sürdürülebilir@@
süreceğini
sürenin
süresince
teklifini
telif
tereddüt
toplandılar
turistlere
tutuklandığını
tüketicilerin
tüğünü
umutlarına
unsurların
verebilir
verimsiz
vo
www.@@
yakınlardaki
yanısıra
yapıyordu
yebilecek
yken
yıldız
zedele@@
çalıştıklarını
çatısı
ücretler
İlişkiler@@
İnsanların
ıklı
ınc@@
Şidde@@
Şiir
şikayette
750
AS
Anders
Balkanların
Bernard
Busek
Daviniç
Denis
Dick
EVN
Europol
Eurostat
Hep@@
ICC
Kipriyanu
Koordinasyon
Kurulunun
Marin
Osijek
Petk@@
Resmi
Sanay@@
Sayın
Sekreter@@
Suriyeli
Visegrad
adındaki
afet@@
aklan@@
altyapısının
altından
ateşe
au
ayacağını
ayları
ayrımcılığa
ayıran
açarken
aşkın
bahset@@
balt@@
başlatmayı
beldes@@
belirtmişti
beraber@@
birincisi
bölgelerine
bürokratik
büyüy@@
bırakarak
cezalarını
ceğine
cm
coş@@
danışmanlarından
darb@@
dayanılarak
dayat@@
devir
dikkatini
diyalogun
donanımı
dostu
dürüst@@
düzen
ekibin
eksikliğinin
erisinde
ertelendi
ertelenmesi
esas@@
gelişimine
gelişimini
göndermeyi
görülmeye
görünmüyor
göstermiş
güçlükleri
haklara
hatırla@@
hazırlandı
hemşire
hisselerinin
ilişkilerine
imzalanmasından
inand@@
istatistiklere
ite@@
itza
işleyişini
kanat@@
kararlaştırılan
kaydettiler
kendimizi
kesil@@
kit@@
kolaylaştıracak
kongre@@
konulardaki
kopar@@
kredileri
kutlamalar
lenecek
liderlerine
mallara
mevsi@@
meyv@@
mobil@@
mode@@
muaf@@
numar@@
ojeviç
okulun
olanaklarını
olmadığının
oradaki
planlayan
platform
profesör@@
provok@@
riç
rolüyle
saatten
sağlamada
sağlamasını
seçimin
seçmenin
sigar@@
silahsız@@
sıralamada
tahsil
takas
tanıdı
taslağı
topluluğun
turizmin
tutulması
tutuluyor
ulmasına
umuzun
uygunsuz
uğrayan
yakalandı
yapının
yasını
yazın
yetkililerini
yönlendir@@
yöntemleri
yüze
Üye@@
çarptırıldı
özelleştirmenin
üstlenecek
İsviçreli
İy@@
şunu
şüphelinin
1,8
Alkalay
Anlaşma
Bancroft
Bağdat
Benim
Bunlar
Cas@@
Dob@@
Doğrudan
Filarmoni
Gan@@
Gelec@@
Herman
Hrant
Hükümetin
Ilir
Ischinger
Kazakistan
Lulzim
MHP
Mustaf@@
Oslo
Romenler
Sariç
Scepanoviç
Selimi
Ses@@
Seçimler
Srebrenitsa
Stat@@
Stratejisi
Tahran
Topluluğu
Trablus
Vel@@
abilecekler
aktiv@@
alarm
almıyor
alınacağını
aniden
annesi
askerinin
asız
azınlığı
açıklamasını
açıklık
ağaç@@
basını
batıdaki
bazılarını
baştan
berab@@
bulduğu
bulunuyoruz
buz@@
bırakılması
cezbet@@
demektir
demokratik@@
depolama
dernek@@
destekten
devamında
devril@@
değerler
diktatör
disiplin
diya
dor@@
duyurusunda
dönemindeki
dönemini
dönemlerde
düzenleyici
düzeydeki
düşü@@
düşünüyorlar
elerdeki
elli
eserlerinin
evlerinden
eşitliği
fikrinin
formül@@
fuara
geçirmeyi
gitme
görmeyi
gündemine
güçlendirmeye
hepsinin
heykeli
idaresinin
iftir@@
ilerletmenin
imtiyaz
imzalama
imzalanmasını
incelemeye
istendi
itesi
iyat
kaldırıldı
kamuoy@@
kandır@@
kanton@@
karmaş@@
katil@@
katliamının
kaydediyor
kesimin
konuyor
korkuyorlar
korumanın
kriterlerine
kuruluşundan
kurumlarından
kurşun
köş@@
larım
lem
lerin@@
lokomo@@
maf@@
malzeme
masum
mediğine
memnunum
mensupları
metrajlı
okulların
olasılığına
olmayacaktır
onaylama
ortamın
parlamentoyu
pom@@
refahı
reformunda
satışları
sayfa
simgele@@
sinyallerini
sistemde
skandalı
sorunlarıyla
sunarak
söyleyebilirim
taksi@@
tartışıl@@
tazmin@@
taşımac@@
teftiş
tezahür@@
tutuklanmasını
tören
udan
umutlar
umutlarının
uzaklaş@@
uğraşan
vermeyeceğini
yapısını
yaratacağı
yerlerini
yetkisini
yolculuğ@@
yoldaki
yuvarlak
yüzyıla
yüzücü
zem@@
zorunluluğu
Özkök
çatışmalarda
çoğul@@
ülerek
üretken@@
üyoruz
ırım
ıtı
ığım
şahıslar
şüpheliler
10.
14,@@
15.
2,9
89
Beh@@
Bis@@
Business
CD
Curoviç
EF@@
Ensti@@
Erk@@
GSM
Hellenic
Janez
Kara
Ke@@
Konferans@@
Konseyin
Krstiç
Kız@@
Lider@@
Luksiç
MAP
Mail
Metohija
Mladjan
Prosper
RI
Remikoviç
Sadece
Samir
Sla@@
Sreten
Viktor
Yakup
Yön@@
acele
amaçları
anayasası
anmak
asayiş
atlat@@
bTV
bağlıyor
başkentinin
beklediklerini
bizden
borcun
bulunup
bırakıyor
civarındaki
dilinde
diyalogu
düzenlemeye
düştüğü
edin
ekonomide
ekonomisinde
endişelere
engelledi
engellerle
erkeklerin
etken
etmeden
etmelerini
ezya
faaliyetlere
gelirler
gensoru
getirmesine
gittiler
gruplara
görüldüğünü
güvensizlik
güçlendirec@@
harcamalarının
hastaneye
hat
hatırlattı
hayr@@
hazine
hazırlıklar
hepsinden
hissesinin
hus@@
ides
imzalamayı
imzalamış
imzalanmış
iradeye
ithal@@
kablosuz
kabulü
karargah@@
karşılaması
katıldığını
kaybettiğini
kaydetti@@
kentlerde
kesi
kesimleri
kesintiler
kitapları
konulardan
koyduğunu
kullanıcı
kullanıldı
kurmuş
kuyruk@@
kökünü
köpek@@
kısım
layacağını
lağ@@
leriyse
liderliğinde
likidi@@
liliğe
makamlarıyla
maliyetinin
malî
mamıza
manip@@
memeleri
memiştir
mo
olasılık
olduktan
olmalarını
onurlandır@@
otor@@
oynayacak
parmağ@@
po
politikaların
prosedürü
reddedildi
rekabete
rik
sahnesinde
savcının
seller
semp@@
seri
serma@@
servisi
seyahat@@
seyret@@
siber
sistemindeki
sorumlulukları
söylenen
süreciyle
tahminlerine
talebin
tanıması
tarafını
taslak@@
tekn@@
teknolojisi
terörizm
tutuklayıp
ularına
umlu
unsurları
usulsüzlükler
uğrat@@
vakası
verilerin
verimlilik
veritaban@@
vurgulayarak
vurul@@
yaralandığı
zıt
çabalarından
çalışmasına
çalıştıkları
çiftç@@
ödülün
öldürülmesinin
ölen@@
öngörüldüğü
ılamaz
şehrin
þ@@
İ
Ş
â
ö
º@@
Ü
é
é@@
*
ë@@
û@@
б@@
=
Q
°
Ý@@
ë
\
ć@@
@
q
Ç
î@@
ó@@
č@@
&@@
^
É@@
í@@
Š@@
š@@
г
г@@
#
$
_
{
±
º
Þ@@
ø@@
đ@@
Ž@@
ž@@
р
я
}
©
ª@@
½
¾
Ã
á@@
è@@
ï
ð
ñ@@
ý@@
ć
Ğ@@
μ@@
а@@
и@@
л
л@@
р@@
у@@
х
ъ@@
